2f
24
14
f0
0d
24
ec
d1
ea
f6
17
0c
b7
eb
18
e0
f2
03
00
df
e7
1e
0b
e0
e7
06
0c
0b
0b
ff
e9
10
0b
17
dc
f8
01
27
d5
ff
e5
04
ef
fa
01
1f
e8
de
f0
ec
ee
21
f5
d3
21
f1
ef
09
f9
de
db
22
1b
0a
1b
09
ee
0c
f5
1e
07
da
14
e8
ee
19
1d
10
0f
fe
e1
ef
28
db
fc
0c
f3
14
f6
12
dd
24
09
ff
e7
1b
e6
d9
dd
df
07
0e
28
17
07
2a
d7
ff
f2
1c
1e
fc
ec
13
25
02
23
1e
14
de
08
1d
11
06
07
f8
13
12
15
fc
cb
1e
00
28
d7
11
f6
11
e3
28
e9
16
00
fe
