04
05
f7
08
02
02
fd
f2
fe
18
ea
e9
05
01
04
f9
06
15
f8
09
11
fd
fb
f7
f1
f8
05
0f
17
08
ef
15
0b
19
17
fe
03
f6
ee
03
11
fc
ec
fa
ef
dc
df
f3
09
0e
f9
15
05
fb
f2
fc
08
f9
00
1e
f3
f9
f5
e9
df
09
e6
f0
e7
e3
f4
07
fa
0e
0c
f4
e9
e6
05
ef
00
05
0e
f7
03
ed
e6
f4
e5
00
0c
f7
03
01
ed
02
08
10
15
0c
00
02
08
f6
ed
00
13
01
00
ea
06
0b
ef
e7
fa
03
12
f8
07
04
08
e2
0b
0f
06
ec
ff
f6
e2
ea
f3
e8
f4
fb
f9
0d
ef
f0
df
fa
07
dd
d6
fc
03
fd
e3
f2
ff
fc
f5
eb
21
ee
f2
0d
e9
df
ed
17
22
0b
db
f9
f6
e2
ff
f1
f2
eb
03
ee
0b
eb
fb
07
f1
fe
0d
e3
e7
00
f6
e9
f1
ee
16
09
ee
00
f1
ec
f6
09
f3
12
0a
0d
1c
f9
01
11
ec
fe
f5
02
0d
f9
09
03
f7
08
08
fe
02
08
1f
2a
03
e1
d8
e4
01
e2
fc
f3
f3
de
0d
15
1a
08
eb
1a
ec
fb
11
d4
dd
00
0a
e3
e7
0b
17
e8
f6
d8
17
f5
d6
bc
09
f6
fc
18
1a
08
d8
e1
e4
19
0e
14
f6
ed
ea
e4
f1
cf
ff
01
e7
05
ec
e1
07
22
18
0d
13
ea
f6
f6
ff
ec
f8
fe
