ed
e4
fc
fc
fa
b7
29
26
2a
f4
08
00
ff
1e
de
db
2b
03
c9
25
0e
f2
08
0f
0b
fe
10
f8
c5
cd
e5
00
dd
2e
2e
c5
13
19
fe
2b
cf
fe
cc
05
0d
0f
b2
02
1e
25
19
0f
1a
d6
ec
25
0a
fc
d6
2a
0a
15
de
08
10
34
e9
12
12
f8
32
dd
0a
f1
df
ec
e1
17
1e
22
f1
ff
0a
bd
27
da
20
12
13
f0
29
ed
db
df
d5
26
11
11
17
25
14
0f
da
e4
05
fe
cb
35
30
0d
c0
db
c0
0b
db
21
f4
19
c0
13
f8
20
0f
19
3f
1e
e2
fe
2c
1c
28
ce
db
09
cd
1a
e2
f0
0f
1d
f4
e8
03
3b
