ff
ff
04
02
fb
ff
01
fc
fe
fe
00
01
fe
fc
fe
f8
ff
fd
00
fc
03
fc
f9
04
ff
f8
02
fb
03
fc
02
04
02
fd
fd
fe
fc
fb
fe
ff
fc
ff
ff
ff
00
00
fb
fa
02
fd
02
03
fc
fc
fe
00
fc
fc
fd
fd
03
f9
fd
01
03
04
ff
fc
00
fe
02
02
01
01
fe
fc
01
fc
ff
01
ff
fe
02
fd
ff
04
fd
02
fd
ff
00
00
01
00
02
fd
fd
fe
fd
00
ff
fc
04
00
ff
ff
03
fc
ff
04
04
00
00
fc
03
fd
fd
05
00
fc
fa
02
fe
01
fc
04
fb
fb
fb
ff
03
01
fc
ff
00
04
fc
fd
fb
fe
ff
fc
00
fe
fd
fd
fd
00
00
fe
05
01
02
fe
ff
01
02
03
fe
fb
00
03
ff
03
01
fd
02
00
fe
00
00
03
00
fc
03
01
fd
04
fd
00
03
00
fe
02
f5
01
03
fd
fe
06
00
ff
ff
01
fe
ff
00
03
ff
f8
ff
00
01
fc
fc
00
fe
fb
02
00
04
01
ff
03
fd
fe
fa
fe
fe
fe
ff
04
02
00
fb
fc
03
fd
fb
ff
fd
00
fc
fe
fc
03
fd
fc
fc
01
fd
03
fc
fe
fd
fc
01
01
01
02
fc
fe
fd
00
01
02
fb
ff
00
01
02
fd
fc
f7
fd
fa
04
01
00
fb
00
fd
00
03
04
fe
01
02
01
fb
ff
01
00
fc
fe
ff
00
ff
fb
f8
fd
03
02
fd
fa
fb
02
03
fb
ff
01
ff
01
ff
ff
01
fb
fe
02
fe
ff
00
fc
fc
fd
fe
fe
01
ff
01
fe
f8
03
03
00
01
ff
fd
fd
04
fe
02
03
fd
03
fb
00
00
ff
00
fe
01
00
03
00
fd
fe
02
fe
fd
03
04
ff
f8
ff
fb
ff
03
03
ff
03
fe
00
ff
ff
fc
03
01
fc
02
02
fd
fd
04
02
01
f8
fd
fd
00
fd
02
02
04
fc
04
04
01
ff
ff
01
f9
00
00
fb
00
00
03
fe
03
fc
04
01
fd
fe
02
00
fd
00
02
03
03
03
fe
fe
fc
02
01
00
fd
00
fe
02
01
00
fe
fe
01
04
ff
02
01
fd
04
03
03
fd
00
fb
02
01
fa
ff
03
fa
ff
04
fd
fb
fe
03
ff
03
fc
fe
01
fc
fb
01
fd
ff
01
01
ff
ff
fb
01
fc
ff
03
fa
01
fd
01
01
02
fb
fd
ff
ff
00
01
fc
fc
00
03
02
f9
00
fe
03
ff
fd
fc
fd
f9
03
ff
fa
03
f8
fd
ff
03
ff
fc
03
01
fd
ff
fb
fd
00
04
02
fc
fb
ff
ff
00
fb
ff
00
04
00
fc
03
03
fe
fc
02
04
00
03
03
fa
fa
fd
ff
03
fc
01
fe
fd
02
fe
ff
03
fb
ff
02
04
ff
04
00
fc
fb
00
ff
fc
01
fc
ff
03
04
03
04
02
01
fc
ff
00
04
fb
04
ff
ff
02
03
fb
fe
03
03
fa
02
01
ff
fd
f9
fa
03
fd
fd
fc
fc
fb
00
fe
03
fd
02
fe
ff
00
ff
fa
03
00
fc
ff
06
fc
00
00
00
f8
03
f6
fc
fe
ff
02
fd
04
00
01
00
02
fa
fd
03
fb
fa
ff
ff
fc
01
fc
ff
02
fb
03
00
fb
02
fe
fb
fd
00
fa
fd
03
ff
f7
00
fe
ff
03
fd
00
01
03
fd
03
fb
fd
00
00
02
fe
01
00
00
fd
00
ff
fe
fb
01
ff
03
fc
fd
00
f8
fd
fc
fd
fd
00
02
03
04
fd
ff
ff
f9
fb
fb
03
fe
00
03
00
02
f9
fe
02
ff
00
fd
03
fd
01
fb
fd
fe
fc
fc
05
fe
fd
fc
fe
fb
04
fe
fb
05
00
ff
ff
fd
00
fd
ff
00
ff
01
fe
fc
02
02
ff
fe
fb
03
01
00
fc
02
00
fe
fe
fe
03
fe
04
00
04
ff
02
fe
fb
fe
fb
fe
01
fe
fb
04
fe
fb
04
fb
f8
fd
fd
04
02
fd
fd
03
ff
02
04
fd
03
ff
00
fa
00
04
01
fc
ff
02
02
03
00
01
02
fc
fc
fd
01
03
ff
fc
04
fd
03
ff
fd
fd
03
ff
fe
fd
fd
05
04
fe
fd
fa
ff
fc
01
04
01
01
fd
04
fc
03
01
03
01
01
ff
fb
03
00
fc
03
fe
fb
fc
03
04
fc
04
04
fe
fb
03
ff
00
fc
01
fc
02
fe
04
02
fc
02
fe
fa
03
00
ff
fe
03
01
fb
01
fc
fd
f9
fb
02
fc
00
fb
fd
fc
00
02
fb
00
03
00
ff
02
fb
02
fb
fc
fb
fa
fb
fe
03
00
fd
ff
fe
00
01
01
fe
fd
fe
fd
02
00
01
f8
01
fb
fe
fd
fd
03
f9
f8
fa
fc
fb
00
02
f9
ff
fb
01
01
04
01
00
fc
fd
ff
fe
f9
03
fd
fd
fb
fb
00
00
fc
fd
02
00
00
02
fb
03
02
fa
01
03
fb
fb
fa
03
fb
fb
fd
fd
ff
02
fe
02
fb
01
00
01
02
02
fd
fc
02
fd
fd
04
ff
ff
02
fe
fe
f8
fe
ff
03
fc
01
ff
fc
ff
fc
fa
fc
fb
03
03
fb
00
ff
ff
ff
fe
04
fe
01
ff
02
03
03
00
04
ff
f9
fd
fd
fa
ff
ff
fd
ff
fc
fa
ff
04
fd
fe
fc
04
fd
f8
fb
00
02
02
01
fd
f7
01
f7
fb
03
fe
fd
fc
02
02
fb
ff
01
fd
02
01
03
fb
03
01
fb
fc
00
fa
fe
fa
fc
fc
fc
00
fc
f8
fc
04
fe
fa
fc
01
ff
03
fc
fd
fc
04
00
fb
fd
02
fe
fe
fc
fb
01
fc
04
02
fb
fc
01
fd
03
fb
fd
fc
fe
01
02
00
ff
ff
03
00
ff
fa
03
03
02
fc
fa
fd
01
00
04
02
04
01
00
fe
fe
03
00
ff
fe
04
03
02
00
fb
03
00
fa
02
04
03
fc
fe
02
03
04
fb
fd
04
01
01
ff
fc
ff
02
03
00
01
fc
00
02
00
01
ff
fc
04
02
fc
01
fc
fe
02
fd
00
01
f7
04
fb
ff
fc
f9
ff
04
03
02
03
fc
02
02
fc
02
02
01
03
04
03
02
fd
01
03
fb
fd
01
00
fb
05
ff
fc
fe
fd
03
fc
fe
fc
03
fd
04
00
04
fc
02
00
01
03
fe
04
02
fe
03
f9
02
fe
02
03
fd
f9
03
00
04
04
fc
02
02
00
01
fe
04
fd
03
04
01
00
f9
ff
fd
02
fe
fd
ff
fe
fc
fb
ff
04
01
ff
00
02
fc
02
01
01
02
03
fc
02
ff
fe
04
02
fd
02
01
ff
fd
fe
00
03
04
02
fe
f9
ff
02
fb
fe
fe
ff
f8
fd
fc
00
02
ff
00
fb
03
fb
03
fc
01
02
ff
00
fe
fd
01
ff
fe
fe
fc
01
fc
ff
ff
fe
ff
00
02
03
fe
00
f9
fe
fc
fc
ff
01
ff
ff
fd
00
fd
00
fc
02
fe
fc
00
ff
fc
fd
02
02
03
04
fc
fa
00
fa
fe
ff
00
02
fa
02
00
00
04
ff
fb
04
00
00
fd
01
03
03
fd
03
fc
ff
ff
ff
ff
02
fb
ff
02
fd
fd
03
03
00
01
fb
02
fd
fc
fa
01
fe
fe
01
04
ff
fe
ff
fe
00
01
00
01
fb
fc
00
01
ff
01
f9
01
03
01
01
ff
03
00
fd
02
02
01
01
01
fa
fe
00
01
fe
01
fe
fe
01
01
fd
00
fd
04
fb
02
ff
fe
01
00
fc
05
03
00
fd
fc
fc
ff
fc
ff
fc
fe
00
00
fc
03
fe
ff
00
fe
03
03
fd
fc
fc
02
fb
fd
ff
00
fa
fd
f7
fe
01
fe
f8
fe
fe
02
03
00
03
fc
01
03
fb
fb
03
ff
04
fe
fe
ff
fe
03
02
ff
03
02
00
00
03
04
fb
fd
03
03
01
05
03
03
02
f9
01
01
03
00
fe
fb
fe
fe
03
fe
fc
02
fe
00
fc
01
04
01
03
00
02
04
fd
ff
01
fe
fc
03
fd
02
fd
00
fc
02
02
01
ff
04
ff
ff
00
02
03
00
01
03
04
fc
ff
fd
fc
04
fd
00
00
ff
fb
04
fe
01
01
fd
f9
00
fc
00
01
05
04
fd
ff
04
04
02
03
fc
fc
ff
03
03
00
05
fe
ff
fc
03
01
ff
03
ff
fc
fb
fc
ff
ff
01
fc
03
ff
fe
02
fc
fe
fa
02
01
fb
04
fb
fd
fd
00
05
fe
00
03
ff
01
f8
fc
ff
f8
fd
fc
fd
02
fc
fd
00
01
fe
00
fe
fe
04
ff
00
00
01
fc
01
fd
fb
00
fe
01
01
ff
01
fb
02
00
03
fb
00
fa
fd
01
fd
fb
fd
fc
ff
fe
fd
00
ff
00
fc
ff
fe
fb
00
fa
01
01
fb
fd
fd
03
fb
04
fd
fb
fb
03
01
f8
fe
fd
fe
00
02
02
00
fd
01
ff
03
fd
fd
fd
01
01
01
fa
01
04
00
00
02
03
00
03
fe
02
01
01
fb
ff
fb
fe
fe
fe
ff
fb
ff
ff
00
fb
03
03
00
04
fc
02
00
04
ff
fd
02
fe
ff
01
00
fe
fa
ff
00
fc
fe
ff
fc
fb
fd
00
03
01
01
fe
02
fe
fe
ff
00
fb
fb
02
ff
fc
f8
01
ff
04
ff
03
02
00
00
fe
ff
fc
03
01
04
03
fd
f8
02
04
03
00
01
fc
01
03
fd
fe
fc
00
ff
02
01
00
fe
03
fe
ff
fd
04
02
00
01
fd
01
03
03
02
01
ff
01
fc
fd
02
04
ff
fb
fd
fd
fb
fc
fd
fb
02
fd
fe
fb
02
01
fd
02
fc
fe
03
ff
02
fc
02
ff
01
fb
00
00
fc
00
fd
fd
03
fd
01
00
fe
f8
fb
01
fc
01
fc
00
03
fd
ff
02
fa
fd
05
01
01
00
02
fd
fb
fe
fd
ff
01
02
00
fb
00
fe
fd
03
fc
01
00
fe
00
fd
01
fd
01
fb
02
02
03
03
fc
03
02
fe
ff
04
fe
03
fa
ff
ff
01
fe
fa
fb
fe
03
04
04
03
00
ff
02
ff
01
ff
ff
fd
fb
01
02
fe
fa
fe
fd
01
fa
00
03
00
fa
fb
03
fe
fd
fa
fd
02
ff
ff
03
00
fd
fe
01
03
ff
00
fd
fc
00
fc
ff
04
03
02
ff
02
00
00
ff
fd
00
fe
02
01
fc
fd
ff
00
01
fd
01
00
01
ff
04
fc
01
04
01
ff
00
01
02
fd
03
fd
fd
01
00
fe
fc
fe
fd
00
fe
fe
fd
ff
f9
fc
00
01
02
ff
fc
02
00
fb
ff
04
fc
04
00
fe
fb
fe
01
00
ff
00
ff
fe
fb
fb
00
ff
fb
ff
fe
00
03
fe
fe
fb
fd
fe
fe
03
01
04
fd
04
03
fb
fe
f9
ff
fe
fb
fd
00
02
00
fc
03
02
01
03
01
fd
04
ff
ff
01
ff
fc
fe
03
fe
05
fd
ff
fd
ff
ff
ff
02
fa
fb
fa
f9
00
04
fc
fd
fb
fc
fc
fb
fb
fd
fb
fb
fc
02
01
fd
ff
00
fc
ff
fd
fd
02
ff
fa
fd
fd
fe
fd
fc
fa
04
fb
fc
05
00
ff
fd
01
ff
02
fb
ff
fa
fb
fc
fe
00
fc
01
fc
fc
01
fb
fe
fd
03
ff
fc
04
ff
fd
f8
ff
00
fc
05
01
fc
fe
01
fa
03
01
fd
00
01
ff
03
01
fe
fd
01
01
fe
fc
02
fd
03
00
fe
fe
02
03
00
04
fd
fd
03
fb
fc
fc
03
f9
fc
fc
fe
03
ff
02
fc
fd
03
04
01
fc
ff
fe
02
fc
00
04
fe
01
fd
fe
02
00
fb
fe
ff
01
01
02
fe
f9
fd
fe
ff
02
fe
fe
ff
02
fd
fe
fc
04
01
02
fe
04
fc
fd
01
fe
00
fe
04
04
02
ff
fe
fc
02
fc
fe
fb
fc
fb
01
00
02
fb
fd
03
ff
01
fe
00
fd
fc
00
ff
02
fe
fe
03
03
fe
fc
03
00
00
fc
04
fc
fc
fd
01
02
02
fd
04
fd
01
ff
03
fd
04
02
ff
02
03
ff
fe
ff
02
fe
01
ff
03
00
04
fb
01
03
fe
00
fd
fa
fb
fc
03
03
04
01
fe
ff
ff
03
fe
fa
fa
fb
fd
01
01
fd
02
01
01
fe
00
fd
04
04
ff
ff
fc
fc
fd
00
fa
fb
fd
00
fd
ff
fc
05
04
fc
04
02
ff
02
00
fd
04
04
fc
ff
03
fd
04
04
01
04
fe
03
01
02
fc
fd
00
f9
03
04
fe
fb
fe
01
fb
03
fe
02
ff
fe
03
fe
02
03
fd
ff
04
fc
ff
01
04
00
04
01
05
02
00
fd
01
fe
00
fd
ff
fb
02
fe
04
ff
fc
fe
f9
ff
03
fc
ff
fe
fb
ff
00
01
ff
fb
03
f9
ff
fe
fc
ff
fc
fc
01
fe
03
fe
04
00
fe
04
fb
03
fd
ff
fc
ff
fd
fd
fc
fc
fb
00
04
f9
04
03
ff
02
ff
02
fc
03
03
03
04
fa
fe
01
fb
01
fd
fd
01
00
ff
ff
02
00
01
fc
03
03
00
02
fd
fe
fc
02
f7
02
02
fd
00
fc
fc
fd
02
ff
fb
fe
fa
01
fb
fe
03
04
fe
fd
01
01
fe
fc
04
ff
fb
fb
fd
fc
00
ff
fc
01
04
fc
00
fc
fb
fe
00
fb
03
03
ff
fe
fb
fb
fe
04
fd
ff
ff
fe
fa
fc
00
fb
00
03
fb
fa
00
fd
fc
fd
02
01
fe
fb
04
03
f7
03
fc
00
01
fb
fc
fd
fb
03
fc
02
fb
fe
ff
02
ff
03
fb
ff
01
00
04
fe
ff
ff
00
fe
02
ff
fe
03
f9
04
02
fc
fd
fd
fb
00
fe
fb
fe
01
fc
fa
fd
fd
fe
fd
fe
02
fc
fe
fb
02
03
01
fa
fa
00
fd
02
04
fc
02
fd
01
fb
fc
ff
fe
00
fc
02
00
01
02
fc
02
03
fb
ff
00
fc
03
fd
fe
fe
ff
fe
fd
04
fc
fb
04
f9
fd
fb
fc
fd
01
04
fd
00
02
ff
00
02
03
01
04
fd
00
fc
00
fe
fe
02
fc
03
fc
03
03
04
fe
fc
04
fc
00
fb
01
fc
01
01
01
fb
01
02
04
00
fd
fd
fb
02
ff
fb
fe
fd
04
02
ff
01
02
00
01
fc
02
03
fd
00
03
04
ff
ff
fd
03
03
00
02
fe
02
fd
02
fe
03
fd
03
fc
03
05
fd
fd
01
fe
02
fc
fc
fb
fe
01
fd
f9
02
fb
03
fc
ff
fe
fb
fc
02
ff
04
ff
03
fd
fb
ff
ff
ff
fd
fb
01
fd
00
fe
04
04
00
00
fb
fe
03
f9
04
fd
fd
00
01
01
01
fb
fc
fe
fb
01
04
fe
03
fc
01
00
03
00
fc
fe
fd
01
fb
ff
03
ff
02
02
ff
fc
01
00
04
fb
04
02
fd
fe
fe
01
ff
fd
04
fc
fd
02
ff
fd
01
fe
fd
03
00
fe
02
01
fb
00
fc
fd
02
fe
03
fe
01
00
fd
03
fd
ff
fc
02
fe
04
fe
fc
03
01
01
fd
00
fd
fd
00
01
fe
fb
04
03
fe
00
fc
fe
fc
fc
02
03
fe
fe
02
fe
fc
03
fd
00
00
fd
fd
fe
fc
fe
01
fe
03
fd
fd
04
f7
03
03
00
fa
02
03
fd
fd
fe
fe
fd
00
01
01
fb
00
fb
01
04
fe
04
fd
fb
03
01
fc
fd
fe
f9
03
fb
ff
fa
fe
01
00
01
ff
04
ff
01
00
ff
03
fc
fc
fd
00
ff
00
fe
03
00
fb
fc
00
f9
ff
fd
fc
03
fb
ff
00
fc
02
fc
fc
01
01
00
fd
fd
ff
fd
02
04
03
fc
fb
fc
00
04
04
01
03
ff
02
fd
fd
00
ff
fa
00
fe
fe
fd
03
04
fc
fe
fe
fc
fb
fb
fd
fc
00
02
fb
fe
fc
fb
fc
01
00
fe
00
01
fe
fc
fd
ff
00
ff
01
03
fc
01
03
01
fc
fe
ff
03
fe
02
00
fb
fc
ff
fd
fa
fb
fb
01
fb
ff
02
00
04
01
fd
fd
fc
00
fe
03
04
03
ff
fd
01
01
02
04
01
01
fb
03
02
fd
02
01
fc
fc
fe
fd
01
00
fc
04
fd
03
fb
03
ff
fc
fc
fb
fd
fc
00
ff
fe
fe
04
fd
00
fc
fc
ff
fb
fc
01
02
fd
01
fe
fe
fe
ff
fb
02
01
04
00
02
ff
fc
fc
04
fe
02
01
04
03
02
fd
fe
02
fb
fe
03
00
04
fe
00
03
fe
fb
ff
fd
02
03
03
03
01
00
01
fd
00
fb
ff
05
fd
02
ff
01
ff
fe
03
ff
00
fc
02
03
fc
01
ff
fd
04
01
fe
01
fe
00
01
ff
fc
fc
fb
fe
02
00
fe
04
02
00
01
03
01
01
04
fd
ff
fc
fd
ff
fb
fa
02
01
fb
ff
ff
02
fc
fc
03
01
fe
04
02
04
03
00
03
02
00
fd
02
04
fc
01
fd
fc
01
04
fc
04
fd
ff
fc
01
fe
fe
fb
fb
fe
fb
fe
ff
fb
fc
02
fc
fd
fc
ff
01
01
03
00
fd
fd
fd
00
fe
02
fe
02
04
fe
03
04
03
fd
fc
00
ff
01
fb
ff
fd
fb
00
fd
fc
fc
fd
03
03
fa
fe
ff
02
fb
fd
fd
fb
03
fb
ff
02
03
01
fb
01
00
fc
00
fd
fc
04
ff
fe
03
04
fc
ff
fb
fd
fd
fd
fc
00
fe
03
01
fb
01
fe
fc
03
00
ff
03
ff
ff
fd
03
00
02
ff
fd
fe
fa
ff
ff
fe
03
02
04
00
fd
ff
f9
04
05
ff
fa
00
fe
ff
ff
fb
fc
fc
fc
03
02
01
03
fe
01
fc
01
02
fd
03
fc
f9
03
03
fb
ff
fd
fe
03
f8
fd
fa
04
fd
fe
01
03
fe
03
01
01
01
00
00
02
03
fe
ff
ff
05
fd
f9
ff
ff
fb
fe
02
02
00
ff
fd
fb
01
f8
00
ff
ff
fd
f8
ff
02
fe
02
01
fb
ff
03
01
fe
ff
04
04
fd
fc
03
03
fe
fb
fd
01
04
ff
02
ff
04
fb
03
ff
fb
fd
fe
02
00
ff
00
00
fb
01
fb
03
ff
02
02
fd
02
fd
fc
ff
fe
fe
02
ff
ff
fc
fd
00
00
fb
fc
fe
fc
fe
fe
02
fa
fe
03
00
03
03
04
fd
fb
fb
00
fe
03
03
00
03
fc
fd
03
ff
00
01
04
fd
ff
fe
03
02
03
fb
fd
fd
fb
fb
00
03
fd
00
01
00
fb
01
01
03
01
ff
04
01
03
03
fa
01
fe
00
01
00
00
ff
fb
fc
03
fd
f8
03
fd
00
01
fd
03
fd
04
fd
00
fc
00
02
00
fe
fd
02
01
03
03
02
00
02
01
00
fd
fc
03
01
03
03
fc
ff
fe
01
04
02
fb
04
02
01
00
02
fb
03
00
00
02
04
03
03
ff
fc
fe
fd
fd
fc
ff
fb
ff
fb
fc
02
ff
fd
02
ff
02
fb
f9
ff
fb
fc
01
00
fb
fe
03
ff
02
fd
00
fc
ff
fe
03
02
ff
fc
fd
fb
fc
fe
03
01
03
fe
fd
00
fd
03
01
02
fa
02
fd
fc
01
03
05
f9
00
04
fc
03
04
01
00
04
fc
04
ff
03
01
f9
01
01
fc
00
fd
ff
02
fb
01
fb
ff
fc
fb
fc
fe
fe
f9
01
fd
02
02
fe
04
fa
fb
ff
f7
fe
fe
fe
fb
00
fc
fe
fb
04
01
fc
fc
00
fc
fc
fe
ff
02
fc
fd
02
f9
fd
ff
fd
fe
fe
fe
fb
02
01
fd
00
fb
fd
fa
04
01
fa
ff
01
04
fe
02
fd
fb
fd
fd
04
02
02
02
02
f8
01
02
ff
01
fe
02
01
fc
fb
01
03
00
f8
fc
fa
03
fd
fd
03
04
03
fa
fc
fe
fb
fd
01
ff
fe
01
03
fd
ff
01
fc
01
00
fb
01
fa
fd
fc
03
fc
02
fd
00
fe
fc
00
03
01
00
fb
00
00
fe
02
fd
04
00
fb
fc
01
00
03
fd
fb
00
fe
fe
04
fc
00
02
fe
fd
ff
fc
ff
02
01
04
fc
00
03
02
01
01
01
fc
fd
03
fd
00
fd
fb
03
00
04
fc
03
fd
ff
03
fd
fc
fe
02
fd
04
02
fc
fe
fd
fe
ff
fe
03
00
fe
fd
03
03
00
fe
ff
03
fe
02
fe
fe
00
03
fd
fe
04
fc
fd
01
02
fe
fd
ff
fb
ff
fb
03
02
04
fa
03
fb
fb
02
04
fd
ff
02
fe
04
ff
fc
03
fd
fc
02
ff
01
04
03
fd
05
03
fc
01
03
ff
00
01
02
ff
fc
01
fe
01
fe
00
ff
01
fd
02
02
04
fb
01
fb
02
01
01
fb
fa
ff
02
fd
02
fb
fd
fc
ff
fd
00
fb
ff
ff
02
04
fb
fd
fc
fd
fc
fc
ff
fc
02
fc
fb
fb
04
fc
fd
fc
fd
ff
05
fd
04
fd
01
fe
01
00
00
fb
00
fd
fa
fd
fe
fb
fe
00
04
00
04
fc
00
fc
ff
03
ff
fd
fb
f9
ff
00
fe
fd
00
00
01
00
02
f8
fc
02
fe
00
fa
04
00
fc
fd
ff
fd
fc
02
fc
00
03
ff
02
ff
fe
02
00
04
fe
ff
00
fc
ff
ff
fc
fc
00
fc
fd
fc
00
fb
fd
00
fe
fc
f9
fe
01
fd
fc
ff
01
02
00
ff
03
00
fe
00
fc
03
02
fe
fb
00
01
03
fc
fc
fb
fc
00
04
ff
02
ff
fb
fb
00
fd
01
fe
fe
00
ff
fe
01
fb
00
fe
fb
fc
fd
04
fb
fd
fd
fb
ff
04
fb
fd
02
fd
fd
02
fc
01
ff
fb
04
00
ff
fd
00
02
03
01
fb
00
fe
fb
f8
fe
fe
03
f8
fc
fe
fd
ff
fd
fd
fb
fb
fc
01
00
04
04
fd
01
fb
03
f9
fc
02
f7
fb
00
fd
00
ff
00
fc
fa
03
fe
00
fe
ff
04
04
ff
00
03
fe
01
01
01
01
03
02
04
fd
fd
04
fe
fb
ff
02
02
02
02
fd
05
03
ff
fd
fe
04
00
02
fc
fd
fe
00
01
fe
fe
04
02
fd
fd
fc
01
02
fb
04
fd
fd
01
fb
fe
04
04
03
02
fd
01
00
fc
ff
fc
fb
fd
fc
ff
fe
fd
fe
00
02
fc
fb
fd
01
fe
00
02
ff
ff
fe
ff
03
ff
fc
01
01
fa
fb
fb
fd
03
01
fc
00
fc
00
02
02
04
00
fd
fa
fb
ff
fc
fb
fc
fc
fe
02
fe
fc
04
fc
fd
00
fc
ff
fd
ff
00
02
00
01
02
00
fe
ff
fb
fb
01
fd
fb
fe
02
00
fc
ff
03
00
03
02
fb
02
fc
fd
fd
fc
02
01
01
fc
fe
fd
fe
fa
02
fb
fd
fc
00
ff
fe
03
03
fc
ff
ff
01
00
01
fe
ff
03
00
02
02
03
01
04
00
fd
03
fa
fb
00
fe
fe
fc
01
fc
fc
fb
03
fe
fd
fe
02
01
fb
01
04
04
fa
fd
01
01
00
02
03
f9
ff
fa
03
fb
ff
04
04
fd
fe
fd
01
fb
ff
ff
04
00
04
03
00
fc
ff
fe
fb
02
fa
04
fb
fb
01
02
04
00
02
ff
00
f8
01
ff
00
02
fe
fb
fc
00
03
ff
02
fe
00
04
fd
fe
02
fe
03
03
00
00
fd
00
02
05
04
05
02
03
fe
fd
fd
fb
fa
fe
00
f8
fb
fd
ff
ff
fd
fd
fe
03
fe
ff
02
00
00
fb
fc
fe
01
fc
fb
00
fb
fe
fd
ff
fe
fd
01
00
04
fd
fc
00
02
ff
fd
05
ff
01
ff
fd
03
02
01
00
fd
04
fc
ff
fa
fe
fd
00
fb
03
ff
fc
fd
02
fb
fd
fe
02
ff
fe
fd
fd
fd
02
01
00
02
fd
fe
03
fc
01
fc
ff
fd
fb
f9
00
fb
02
fb
fb
fb
fa
fc
04
ff
fd
fe
00
01
00
ff
fc
fe
05
fe
fc
03
f8
01
ff
fe
fc
fc
fe
fb
01
00
fe
ff
ff
02
00
fe
00
ff
f7
fd
f8
03
00
fd
fc
fa
00
ff
02
fe
01
fd
00
fb
03
00
02
01
02
04
03
fd
f9
fc
04
fb
ff
fb
fc
fe
04
fb
fb
04
ff
00
fc
02
fc
01
fe
ff
02
03
00
03
02
fc
04
00
ff
02
03
00
01
fc
01
fd
01
02
fd
fd
fb
fa
02
01
fc
fd
01
fe
00
03
fd
fd
00
04
02
fb
03
fc
ff
00
03
fd
03
ff
fa
03
02
04
01
01
fc
01
f7
ff
fc
04
00
01
f9
fd
04
fe
fd
fe
03
00
fc
01
fe
00
03
fd
02
02
f7
00
01
fd
01
fd
ff
04
fd
fd
01
fd
03
03
ff
fd
fb
fe
fb
ff
00
03
00
ff
ff
00
ff
00
fe
03
04
fd
02
00
02
01
01
ff
02
fe
fc
fe
02
fa
03
04
fd
01
00
00
fb
00
fd
01
03
01
00
fd
fe
02
fd
fc
ff
04
03
05
fc
fe
01
ff
04
fd
fc
ff
00
02
04
fb
04
ff
fb
fb
fc
fe
fd
04
01
00
02
00
ff
fe
fc
fd
01
fc
04
fe
fd
03
02
00
fb
03
fd
fc
f7
02
fb
fc
fe
03
fc
ff
fc
03
fc
03
fb
01
fd
03
fc
ff
00
fc
03
03
02
01
ff
fd
01
00
fd
00
fa
fc
00
03
fd
00
fd
02
ff
fd
04
02
03
03
fd
04
01
00
00
fb
fc
fe
f7
fe
fe
fd
fc
01
fc
fb
00
04
fc
01
00
fd
01
fd
ff
fc
02
00
fd
00
fb
fb
03
fc
01
02
00
01
ff
fd
00
ff
fe
fe
01
ff
fc
ff
04
fe
fe
fb
01
fe
04
fe
00
01
fc
00
03
01
ff
ff
02
03
01
fd
01
fb
fb
03
02
03
fd
fe
04
fb
00
03
fb
05
f8
03
03
fc
fb
fe
03
fc
fc
ff
fd
03
01
00
ff
fb
fc
fe
03
03
fb
02
01
fd
fe
fa
fd
03
fa
fc
fd
03
fd
fe
02
fd
02
ff
fc
fa
03
00
fd
fc
02
fb
ff
f9
f9
00
fc
03
ff
fe
ff
ff
00
fb
01
03
fe
fe
f8
fe
01
00
fc
02
fb
00
fd
fd
f9
fd
fc
fa
00
fe
ff
fa
fb
00
fc
02
03
fe
04
fe
04
fc
fa
01
04
fd
ff
03
fd
00
01
00
00
f9
05
03
fc
fe
00
03
01
ff
f8
00
fc
fe
fc
fd
ff
00
fd
01
ff
fc
fc
03
ff
fc
01
fb
fd
fb
ff
03
02
fe
05
fd
ff
03
fe
00
f8
01
02
03
fe
ff
01
fe
fb
fd
ff
02
01
03
fb
ff
01
fb
02
03
fb
04
ff
ff
01
fc
02
fe
f8
01
00
ff
00
02
04
00
01
04
fc
03
01
fd
fc
fe
00
fa
f9
04
fe
04
fd
00
fc
fd
fe
fd
fc
fd
fc
fb
02
fe
02
fd
fd
03
fb
03
02
fd
02
00
fd
02
ff
ff
fc
01
01
02
03
00
fd
fe
fb
03
fc
f9
03
00
05
fc
fb
ff
fb
fb
fb
fe
fc
04
01
ff
ff
fc
fe
01
02
fd
02
01
f9
03
fc
ff
ff
02
03
ff
fd
fe
ff
fc
01
00
01
02
00
ff
fb
fe
fb
03
03
fa
03
ff
ff
01
00
03
05
fd
fb
fa
fe
ff
fc
01
fe
fe
f7
01
02
fc
fd
ff
ff
00
fc
02
ff
02
04
fe
02
01
fe
01
fe
fd
fa
fc
00
f9
03
fe
fd
00
fd
01
ff
fe
02
fe
03
f9
ff
05
01
fe
fc
04
ff
fe
01
fd
04
02
fc
fd
03
fc
ff
fd
f7
fe
ff
fb
02
02
02
01
f9
ff
f8
fd
03
03
03
fd
02
04
fb
fb
fc
ff
03
ff
fe
00
00
fd
fb
fd
fa
04
fc
fe
04
fc
fe
02
00
fc
fa
02
01
fd
02
fd
04
fb
ff
ff
fc
fc
ff
ff
fc
fb
03
fc
fb
02
fd
fd
04
fe
05
03
fe
05
00
01
00
05
fe
04
02
00
fe
fd
03
00
00
01
fd
ff
03
01
04
03
fb
03
02
02
fc
fe
fa
00
fc
fd
01
01
fe
02
fe
fe
ff
fc
01
05
00
fe
ff
fe
fe
00
fb
fc
fd
01
fb
fb
fb
fe
03
02
03
fb
fc
fe
fb
fc
fc
ff
03
ff
01
02
00
02
04
fe
00
00
01
fd
01
01
01
00
fe
fb
fb
03
fb
03
fe
fc
00
fd
ff
01
fd
fe
fe
fe
02
fe
03
00
00
fe
04
00
fb
02
01
03
fa
02
00
fe
03
00
00
03
ff
fa
04
03
fc
ff
05
02
ff
02
f9
fb
ff
fe
ff
fb
ff
ff
fc
ff
03
00
ff
03
fe
fd
00
02
ff
f9
02
04
00
01
01
fb
01
02
ff
01
02
03
fe
00
02
00
fe
02
fe
03
04
04
01
fd
01
fe
ff
fd
ff
03
fd
fe
fe
02
03
02
fd
00
fb
00
02
fe
ff
02
fd
fb
06
fe
00
02
ff
fc
fc
02
01
01
01
ff
00
02
01
fe
fe
fe
02
05
fc
05
02
fe
fe
fb
fa
fc
fb
02
fc
fb
fe
fb
02
01
fd
fe
01
fa
03
02
fe
03
fd
03
fd
05
00
00
00
fb
ff
fc
ff
fd
ff
fb
fc
ff
fc
ff
03
fb
fc
01
ff
fb
00
04
fb
fc
fe
fc
00
fd
ff
03
03
fb
ff
fe
ff
fb
fd
fd
fd
03
03
ff
fc
03
03
ff
fd
04
fe
03
00
fd
fc
fe
02
03
00
00
02
fd
fa
ff
fe
fc
00
fe
ff
fd
fa
ff
fc
01
04
fe
fd
03
fc
01
fc
03
00
ff
fd
ff
00
04
04
fa
02
fb
03
00
01
01
03
fd
01
fd
fd
02
03
00
01
01
fc
fc
ff
fe
00
fd
00
02
fc
01
ff
03
fd
fc
02
01
fd
fc
fc
02
ff
03
fc
fd
fc
fd
fe
03
00
01
ff
fd
01
03
00
fb
ff
fc
fd
fb
00
fe
ff
fa
fe
03
01
fe
00
04
fd
fc
05
fd
fe
03
02
03
03
fe
fc
00
02
fe
02
fb
05
ff
00
04
05
03
00
03
ff
03
fd
ff
ff
02
fe
01
02
03
ff
03
fa
ff
ff
fb
fb
fe
00
00
fb
00
fc
fb
01
fb
04
00
ff
00
01
00
03
04
03
00
03
01
fd
fe
02
ff
fc
ff
00
00
fe
fc
fd
00
fc
02
00
03
02
fd
01
fe
fe
01
fe
ff
fc
fe
01
03
00
03
03
01
01
fe
03
04
05
ff
02
fd
fd
fe
02
fd
fd
fb
01
fb
fc
01
01
fb
05
fb
00
fb
ff
fe
fe
fb
fc
00
fc
02
fc
ff
fd
04
01
01
fa
04
00
02
02
fe
ff
02
fd
00
fe
03
fc
fd
ff
02
00
fd
01
ff
fc
00
04
00
03
00
fa
ff
01
fc
02
fc
ff
03
fd
03
04
fe
ff
04
01
00
02
02
04
fc
02
00
fe
03
fd
fb
ff
fb
00
01
ff
fe
fb
04
02
03
ff
fd
fa
ff
03
03
00
03
fb
00
fc
fb
fd
fd
fd
02
ff
ff
00
02
03
00
03
fb
02
fc
fc
02
04
01
fc
fe
01
01
fa
fb
ff
00
03
04
03
00
ff
04
01
fb
01
03
fe
fe
fe
fe
fd
00
00
05
01
fb
ff
03
02
04
02
fa
04
00
04
04
fc
fd
ff
02
00
01
00
01
03
fc
fc
03
ff
ff
00
fe
fe
01
02
ff
01
02
03
fa
01
fb
01
fe
00
fb
ff
01
01
fd
fa
fc
03
01
01
fb
fe
fc
02
04
03
01
fd
01
fc
04
fe
fe
ff
fe
fe
f9
00
fb
00
fe
00
fc
fc
fe
01
ff
fc
ff
01
fd
03
02
fd
02
03
fe
03
02
fe
00
fe
fb
01
fb
fd
ff
00
fb
03
ff
02
fc
03
ff
fb
fa
fb
fd
fb
ff
02
fc
05
03
03
fc
01
03
00
fd
00
ff
fe
ff
03
04
00
02
fe
fe
fb
fe
00
fc
fc
ff
fd
04
01
fe
fb
01
fc
fc
fa
01
fd
fb
00
02
fd
ff
00
03
fe
fb
fb
fc
00
02
00
fa
fe
fc
fe
ff
ff
fd
00
01
01
03
fd
fd
04
fa
02
fd
fa
00
01
04
fe
01
02
00
ff
ff
00
ff
fd
fd
04
ff
04
fc
00
01
02
00
fd
01
fc
01
fd
04
04
fd
02
02
01
04
fa
fb
02
00
fb
fc
03
fe
02
00
fe
00
05
01
00
fe
03
02
02
fc
fb
fe
01
02
03
ff
02
01
01
fb
fd
fc
02
ff
ff
fd
00
fb
ff
01
fc
fd
fc
fb
fc
fd
00
04
01
fd
02
fe
fb
fc
fb
02
03
ff
04
fe
ff
02
03
04
02
ff
02
fb
ff
fa
fd
02
00
00
fc
fe
fc
fe
02
fc
05
03
ff
01
03
01
01
fd
fe
ff
00
ff
ff
03
02
fb
fe
fb
03
00
fe
00
fd
fb
fc
04
fa
01
03
02
fe
fd
02
fe
fe
fc
fc
fb
fe
03
fc
ff
fb
fe
fe
03
fb
01
05
fd
fd
ff
03
fe
04
03
fc
fa
fb
fd
01
02
01
04
01
ff
00
fc
ff
ff
fc
fe
fd
fe
02
01
01
fd
fe
fd
00
02
00
fd
fb
fb
00
00
fb
00
01
01
00
f9
fe
03
ff
fc
fe
fb
fc
01
01
ff
fc
fe
fe
02
02
00
01
04
02
fe
02
fe
fb
fc
00
01
03
fe
fd
fc
01
fe
ff
00
03
fa
fe
fb
00
fd
fc
fb
01
fd
01
fd
02
03
00
fe
fd
00
fc
03
fe
02
fb
fd
fb
fb
fb
fa
04
fd
ff
ff
fb
fc
03
01
02
02
fc
fb
fe
fb
ff
fb
fe
fb
ff
ff
fd
02
03
fa
fb
fc
fe
fd
03
fa
fb
ff
00
02
01
fc
fe
02
04
fc
fc
02
fe
03
fc
ff
03
fb
02
fa
fc
fe
02
fe
04
fb
fc
03
fc
fb
ff
fc
fe
01
01
ff
ff
02
fe
ff
03
00
03
01
fc
02
fc
fd
fb
00
fc
00
fc
03
fe
fb
00
fd
00
02
02
02
ff
fb
ff
03
ff
fc
fe
fe
01
fb
03
00
02
ff
fb
fe
fe
fe
fd
fe
fe
fb
04
04
01
01
01
fb
02
02
04
04
00
ff
fd
04
00
fb
fb
fd
02
00
fd
03
00
02
fd
fb
02
00
02
fc
00
03
fc
fc
ff
fd
fb
03
01
fb
fd
ff
fe
04
00
fe
fe
00
fd
00
01
03
00
fe
01
00
00
fd
fe
03
fb
fc
01
fd
02
00
fe
fc
01
00
04
01
fe
fd
02
01
05
fd
fb
fb
01
05
01
fb
05
02
02
03
04
fb
02
fb
04
00
00
fc
01
fc
fb
02
fd
02
00
fa
fb
fd
00
fe
01
01
fa
fb
fc
01
02
01
01
02
00
fc
00
01
fd
01
00
02
02
fd
01
02
01
01
ff
fe
01
fb
fb
fb
fc
ff
fb
00
fa
ff
03
02
01
fb
fb
ff
02
01
04
00
fe
00
fb
03
fb
02
01
fd
03
fc
00
00
00
ff
fe
00
fc
01
ff
03
fb
fa
fd
fe
02
00
ff
02
fd
ff
02
fd
fd
fb
fd
fb
ff
fc
fc
02
fc
fb
02
fb
fb
fc
ff
04
02
ff
fd
ff
fc
ff
fb
00
03
fe
fb
fe
fd
fe
01
02
fd
fb
02
03
fb
03
fd
03
01
02
03
01
00
fb
fc
fe
ff
fe
03
03
03
02
01
01
01
fd
fc
ff
fb
02
01
fc
fe
fc
fb
00
ff
fc
04
fd
03
01
01
fd
fa
01
00
ff
02
04
fc
fd
00
fd
02
03
fd
01
01
04
fe
01
fd
03
ff
fe
04
00
fb
ff
04
fc
fd
fb
01
01
03
00
ff
02
ff
01
fe
00
fa
ff
02
ff
00
fd
00
01
02
fe
fc
03
fc
03
04
02
02
00
fe
ff
00
fb
fe
03
01
fe
ff
fb
01
02
fb
01
fc
fe
01
02
fe
ff
03
00
00
ff
02
fc
fd
01
01
03
fd
fb
ff
fd
fb
ff
ff
fe
01
fd
fd
00
01
fe
00
01
03
01
02
02
fc
ff
fe
00
ff
fb
00
01
ff
04
fe
fc
00
01
03
03
fc
02
00
fa
fc
ff
fe
01
00
fb
fb
fb
00
02
fb
04
ff
fb
fe
ff
fc
03
02
02
03
02
02
fb
02
02
03
fd
02
fb
fc
fd
fd
00
01
03
fb
fe
ff
fd
04
00
03
fc
03
01
fe
fd
fb
fb
fe
fe
01
04
02
02
03
04
fd
fd
fb
00
fd
fc
02
ff
04
fd
fc
03
fd
fb
01
ff
01
00
03
01
fe
01
03
ff
00
03
fb
01
fa
ff
fd
02
fb
00
fa
fe
02
00
03
fe
fc
01
02
fb
02
fc
01
f9
02
fd
fd
00
fc
03
ff
fb
01
04
fe
fe
03
fe
00
fb
ff
00
03
fe
00
fd
fd
02
fc
fb
ff
fb
fa
01
fd
ff
02
00
fd
00
01
ff
04
fe
01
fe
00
04
fb
03
fe
fc
02
03
fb
fc
fb
fe
fc
00
fb
fe
fb
ff
fe
ff
fd
fe
00
fe
fa
fe
fd
fc
01
fe
01
02
ff
fd
fb
03
00
fd
fe
fe
00
ff
fc
01
fc
fe
01
02
02
ff
fb
fb
ff
fc
01
00
fc
ff
fe
fb
00
fe
01
fe
ff
01
fd
04
fb
ff
fd
fb
fb
00
ff
ff
fb
00
01
02
00
03
00
01
03
fa
03
00
fb
fd
03
fe
02
02
01
00
03
01
00
01
05
fd
fc
03
fb
fd
fd
fb
ff
04
ff
03
03
ff
fd
03
fc
00
fe
04
ff
fd
fd
fc
02
ff
01
fc
fb
03
02
fe
01
ff
ff
fe
fb
02
03
00
01
fd
03
fc
fc
fd
fe
fc
fc
fa
fd
fe
fb
fc
fd
04
02
fd
ff
00
00
fb
03
fb
fd
00
ff
fb
03
00
fd
02
03
04
03
fc
01
02
fd
ff
04
fd
02
ff
02
fa
fd
04
fd
02
05
01
fe
03
fc
fc
ff
fe
fb
03
04
fd
fd
fc
fc
fe
fe
03
fb
fe
fa
fd
fc
02
00
05
fb
00
02
02
fe
00
fd
fb
fc
fd
01
03
ff
fc
fb
02
00
fc
fc
fb
ff
fb
05
03
fc
02
ff
01
00
f9
fe
04
fd
fd
ff
ff
fe
ff
fc
fc
fe
fd
01
fb
03
02
04
03
fd
fc
03
fc
fd
fe
02
04
01
02
fb
fe
fc
01
04
00
fa
fe
fe
fe
fb
fb
01
fd
00
01
fe
02
ff
03
02
fe
fc
01
fe
fd
01
03
fc
fe
00
03
00
02
01
fe
02
04
01
00
fc
ff
02
fb
fd
ff
03
03
ff
fc
03
ff
ff
03
ff
fb
ff
f9
fd
ff
fb
00
fa
01
fb
ff
03
fd
04
00
fe
02
ff
fc
02
fc
03
ff
fe
00
01
00
ff
fd
fe
01
02
fd
01
00
fe
ff
ff
01
fc
00
01
fe
fb
fc
fd
fd
fd
fc
02
03
03
ff
00
fc
fa
fc
00
fd
02
fc
01
fe
ff
fb
04
ff
fb
fd
fc
01
fb
01
02
03
fb
02
00
fb
fa
fd
fd
01
fc
03
ff
02
ff
04
03
ff
02
01
00
fa
fb
04
03
02
03
ff
fb
ff
04
02
fa
fc
fc
fd
00
02
ff
ff
00
04
fe
fb
03
01
fe
01
03
fb
fb
ff
00
fc
fc
ff
fd
03
01
01
01
fe
02
00
ff
fe
fd
fe
00
fe
fa
00
05
00
02
fc
02
03
01
ff
01
ff
f9
01
fc
fd
fe
fc
fe
ff
00
ff
05
02
fb
fc
fe
ff
05
fb
fe
02
01
fe
01
fb
fd
02
03
00
03
03
fc
ff
fc
00
04
fe
fb
fd
01
03
fc
fd
01
02
ff
ff
fb
02
fc
02
ff
fd
fc
01
00
03
03
fc
fc
03
fc
04
fe
fb
02
01
fe
01
00
04
00
f9
fc
fd
01
fb
fb
fe
02
fb
01
fb
01
03
01
fe
fd
01
fd
00
02
01
02
02
fb
02
fd
fb
00
03
ff
fe
fc
03
04
fa
fc
fc
fd
fd
fe
00
00
03
fd
ff
03
fb
01
03
02
fc
00
00
fd
fd
fe
fb
fe
01
04
01
01
03
01
fd
fc
01
fd
00
00
fc
00
fb
fb
fc
fe
01
fd
02
ff
fd
00
fb
ff
01
fb
03
ff
ff
fc
01
01
fe
fc
fb
fd
fc
fb
ff
00
fe
03
03
04
01
04
02
02
00
fc
f9
01
04
02
03
fe
00
02
ff
fe
fe
fa
03
04
fb
fb
02
fd
02
03
ff
ff
ff
ff
01
02
fe
fd
01
fb
fe
00
02
fe
04
03
02
ff
02
fd
ff
02
00
fd
02
ff
01
01
ff
fd
00
01
fc
ff
fd
03
fc
02
02
04
02
04
fe
fb
00
03
fe
fc
03
ff
fd
00
fb
fd
01
fd
fd
fd
fc
00
04
05
fc
fc
fd
00
fc
fe
fc
fe
fb
00
01
01
04
03
fc
fd
fd
fe
00
fc
02
fb
fd
04
05
fe
00
01
00
03
00
fd
01
ff
fb
fd
02
fd
fd
00
00
02
fb
fe
00
fc
fb
04
01
fd
fc
ff
ff
fb
03
ff
02
ff
01
00
fd
fc
00
fb
fa
fb
03
fe
00
fb
fb
fd
04
fb
fe
04
fe
00
fa
00
ff
03
fa
02
04
00
fd
01
fd
02
01
ff
fe
fa
02
ff
02
02
ff
02
fc
fe
ff
00
fb
fe
fd
00
fc
00
fa
03
fb
02
00
ff
fb
fb
fd
ff
04
fd
00
fe
fb
03
00
fb
fa
04
fc
fc
fd
fd
fd
fe
03
fd
02
04
00
fa
fa
04
ff
02
01
ff
fd
fe
ff
fd
02
ff
01
00
fb
fd
fc
03
f9
fa
02
03
04
fe
00
00
00
02
00
fb
fb
fd
00
fc
04
fe
00
ff
00
fe
03
02
f9
fc
fd
01
02
ff
fd
fc
fb
03
04
04
00
fd
fc
fb
fe
ff
02
fd
ff
fd
02
02
fb
fc
03
00
fb
00
01
fb
fb
fc
00
fb
02
01
03
03
ff
fd
fe
02
fb
02
02
02
01
ff
fa
03
00
fe
fd
fb
01
fb
02
fd
ff
ff
03
fa
ff
fc
02
fd
03
fd
fc
02
00
fa
fe
fe
ff
fb
ff
fb
fe
fd
fe
fc
05
fd
fe
ff
00
ff
00
04
fc
01
02
fc
01
01
fc
01
00
04
03
fd
fb
fc
00
01
02
04
fc
03
02
ff
01
01
fd
fe
fd
fe
ff
ff
fa
fd
ff
02
01
01
fc
03
02
fc
ff
01
02
02
01
ff
fa
00
fd
ff
fe
fc
fd
00
fc
fc
05
00
01
fd
fc
02
fc
03
fb
02
02
ff
fe
fc
fc
02
ff
03
03
fe
05
ff
fe
00
01
02
ff
ff
fc
02
fd
fc
03
01
fa
00
02
fc
02
01
00
fe
fd
ff
fd
ff
ff
fc
fe
fb
fb
fc
fa
00
02
fb
fc
00
02
ff
ff
fd
fb
ff
04
fb
04
fe
00
fe
fb
fb
02
02
01
ff
02
02
ff
00
fd
fd
00
fb
02
03
04
fc
02
ff
fb
00
ff
04
02
fe
fd
fa
fa
04
00
ff
02
03
01
fb
01
fc
fd
fe
00
00
ff
fc
00
fd
00
00
02
ff
00
fb
00
fe
fd
fe
fc
03
fe
fc
fe
fc
fe
fa
00
fd
fe
fb
ff
fd
00
f9
01
fc
ff
fc
01
01
fc
00
ff
fe
01
fb
fc
fe
ff
ff
fe
03
00
fb
fa
03
02
fe
fb
00
ff
02
fb
ff
ff
04
01
00
fc
02
02
01
01
00
fa
01
ff
02
ff
fa
04
02
fc
01
fe
00
fb
fc
fc
03
01
fe
fd
fd
02
03
fa
fd
fd
fe
fb
ff
fd
fd
00
ff
01
04
02
02
01
01
fe
00
03
ff
03
fd
00
fd
fe
fe
fd
ff
01
fd
fb
02
fc
fe
fc
02
fc
02
ff
00
fe
02
01
00
03
04
01
fc
fd
00
00
04
04
fe
fd
fd
fc
fc
ff
02
02
01
ff
04
fc
fb
00
04
02
fc
fc
fc
fb
fd
fb
fd
03
01
fc
00
02
03
ff
02
00
fe
03
fc
fb
fd
ff
fb
fe
fd
00
01
fa
fe
fc
fe
04
fe
01
00
00
02
fc
03
fe
ff
03
ff
fd
05
fd
fa
02
fb
fa
01
fc
fd
fe
fb
fb
ff
fb
fb
fe
02
01
02
01
fd
fd
01
fc
00
04
fe
01
00
01
fe
fb
fe
00
00
fd
fb
03
fd
03
fd
03
03
ff
fe
02
fe
fe
fe
00
03
fe
fe
00
ff
fc
01
02
fe
fe
01
04
fb
02
04
fb
04
01
00
fc
02
00
ff
fb
fc
fe
03
02
02
fe
02
fe
fa
fc
01
fe
03
00
02
fd
01
fe
02
00
ff
02
01
03
fe
03
fd
02
00
fc
03
fe
01
02
00
ff
fd
ff
01
01
fc
fc
fd
03
01
05
02
00
01
fc
ff
ff
00
fc
fe
fb
ff
00
fa
fb
03
fd
01
01
fe
02
ff
fd
03
04
fe
fd
03
fb
ff
04
03
fd
02
03
00
fd
fe
02
00
fb
fc
ff
03
03
03
fe
00
ff
04
01
ff
01
01
ff
02
03
fd
fa
00
03
fa
fd
ff
01
05
02
02
fe
fd
fe
01
02
01
fa
fd
04
01
02
03
00
00
fc
03
01
03
fe
02
02
02
01
fc
fd
02
03
03
fb
fb
01
05
ff
fb
f9
fb
fe
fc
fd
05
01
01
fa
02
ff
ff
fc
00
02
ff
fe
fd
02
05
00
01
00
fe
03
00
00
00
fd
04
01
fd
ff
01
01
fc
fd
fe
fe
ff
fd
02
03
00
fc
00
fe
fb
fd
02
ff
02
fd
01
fb
02
04
fe
fc
fd
fc
fb
03
fe
02
03
02
fb
fe
fc
ff
fc
00
01
04
fe
fb
03
fd
03
fc
fd
00
02
fe
fb
fb
fe
fe
fe
fc
03
ff
fe
fd
fe
02
fc
fd
00
01
fd
fe
fc
fc
fc
00
fc
03
fc
04
fe
fe
01
03
02
04
01
01
ff
02
01
02
ff
fd
02
fb
ff
ff
fc
fe
fa
fe
03
fc
01
fd
fe
03
ff
00
ff
ff
03
fb
01
fa
ff
fd
fd
03
fa
02
01
00
04
ff
01
04
fd
ff
fa
00
02
fb
02
00
fd
fc
ff
03
fd
fc
00
fc
03
ff
fd
ff
fc
fb
03
03
01
fc
fd
00
fd
fa
fd
fe
03
02
01
03
04
00
03
fc
fb
fd
fb
03
02
fb
00
fc
fd
fd
01
01
fc
01
01
03
fd
fe
fa
fa
fb
fc
04
03
00
01
fe
00
ff
02
fc
fb
fe
ff
ff
03
01
ff
00
fe
01
ff
02
fc
fd
01
fd
fb
fc
00
fd
00
fc
fd
04
00
01
02
00
fc
00
fe
fd
fd
fe
fd
fd
fc
00
00
fd
00
fc
fe
fd
00
02
04
00
fd
fe
ff
fe
00
ff
02
fc
03
fe
fa
ff
02
fa
fb
ff
02
fb
fb
02
02
00
fc
01
ff
fe
fd
04
04
f9
02
fb
00
fc
00
ff
02
00
fc
fb
04
fe
02
fa
00
03
00
fc
ff
f9
05
fe
02
03
02
03
fd
02
fb
ff
01
00
ff
fe
04
01
02
03
fc
ff
02
fe
fe
ff
fc
fb
fe
fe
00
fd
00
00
fa
00
fe
01
fd
03
03
04
02
fc
03
f9
fd
ff
01
fc
02
05
fb
fe
fd
fe
01
fd
02
fc
ff
ff
fc
ff
04
fc
fb
00
fb
ff
ff
05
fe
02
01
01
fd
fe
02
fb
02
03
fc
03
fd
01
fd
01
fe
fb
01
01
03
05
02
03
ff
fe
01
fb
04
fe
fd
ff
03
ff
03
00
fc
03
00
fa
04
fe
02
ff
00
fe
fb
04
ff
01
ff
ff
fd
fe
fc
02
ff
fe
02
02
fc
fc
fb
02
fb
fb
fc
04
fc
03
fe
fb
fb
fc
fc
03
01
fd
fe
01
01
fb
fe
fe
fb
02
01
03
03
fd
fd
fe
ff
fb
00
fc
fe
fc
fb
03
fa
ff
fe
fe
02
01
fe
ff
fd
fb
fd
04
fd
02
fb
fd
01
fd
fe
fe
01
fe
fd
00
fe
fe
04
00
00
00
fb
fc
fb
02
fd
ff
fc
ff
03
fe
fa
fb
fb
fd
fb
fe
02
fa
02
04
fe
00
03
fd
00
fc
ff
04
fe
00
fb
02
03
fb
00
fd
fe
01
ff
03
fc
fe
fc
fe
fa
ff
fe
01
01
02
fc
03
fc
fb
03
fb
01
fe
fd
fc
01
ff
fc
ff
fb
00
fb
04
02
fc
fe
02
00
fb
00
fd
00
fb
fb
00
03
fd
fc
fc
fe
fc
fe
ff
fc
01
fd
ff
04
00
fb
04
fe
fe
03
00
01
01
04
01
ff
00
fd
00
fc
04
fe
fb
fc
fe
ff
fc
02
00
ff
fd
fe
00
03
03
fd
01
02
fc
01
fe
01
00
fc
fe
fb
01
00
01
fc
02
01
fb
02
fe
fd
02
fc
04
f9
fb
fe
fc
02
fe
ff
00
fc
fb
fd
fb
02
fd
fe
ff
02
fe
03
ff
04
03
ff
02
00
03
04
ff
01
02
01
fe
fa
fe
fe
ff
02
05
02
01
fc
ff
00
fe
02
01
05
00
fd
fb
03
fc
03
03
fc
fc
fc
fe
00
fc
fb
fc
00
ff
ff
02
fc
01
fe
03
fb
fc
04
fe
04
fe
00
00
02
fe
02
00
00
fc
02
fd
fe
fc
fb
01
fb
02
02
fe
01
04
00
fd
01
fc
fb
00
fc
fb
01
03
fd
fd
fc
ff
02
ff
03
fb
01
fd
03
03
00
fb
00
ff
01
02
fe
00
03
fb
01
fc
02
fc
fb
fc
ff
fc
fd
03
ff
fc
ff
03
05
00
fd
03
01
fe
00
fc
fe
02
ff
05
fc
fb
02
02
fb
fc
fe
00
fc
ff
fe
ff
fe
00
fe
03
fd
fe
03
fb
03
ff
fb
ff
fc
fc
fb
05
01
fc
00
ff
02
02
00
fa
fe
00
fa
fd
ff
02
fc
ff
fd
03
fb
fd
00
01
03
fe
fc
fc
fc
02
01
02
00
02
ff
03
04
04
04
fb
ff
02
ff
fd
fd
fd
00
02
fe
02
fd
02
fd
fc
02
fd
ff
03
02
fb
fb
ff
fb
02
fb
03
01
fd
fb
fd
00
01
fb
02
fe
01
ff
fc
fe
fa
ff
01
ff
fc
fc
fd
01
00
03
04
04
01
03
01
fd
fd
fc
02
fd
02
03
fd
00
03
fa
03
ff
fe
02
fa
fd
fc
fa
fc
fe
00
fc
01
fc
00
fe
00
ff
fe
02
03
fc
01
fc
03
01
ff
fe
fc
01
01
fd
fd
fa
fe
fb
00
fe
01
01
03
00
fb
00
fe
02
fd
03
02
fb
fd
04
02
fc
ff
01
04
03
fd
fd
03
00
03
03
fe
02
fe
02
03
04
fb
00
ff
fe
02
02
03
01
fb
fe
fc
fe
00
fe
04
00
01
fd
fd
ff
03
fb
fe
fc
fe
00
fa
01
fb
fa
fc
fd
fa
fc
03
02
02
fb
01
01
02
fc
fe
01
fc
ff
fc
fd
fe
04
01
fe
fc
fe
fb
fc
01
04
02
02
02
00
fc
03
ff
fb
00
02
04
fc
ff
04
02
fc
fe
fb
03
fb
fb
fe
fb
02
03
03
fe
fe
02
03
00
ff
fb
fb
01
00
fc
00
fc
ff
fc
fc
03
fc
04
fc
fb
fd
fd
03
04
fe
03
fe
01
ff
00
fe
fc
02
fd
fc
04
05
ff
fd
fe
fc
05
01
fb
fb
00
03
fd
ff
00
00
00
fc
01
01
fc
00
fb
fd
00
fc
01
fe
01
fc
02
00
f9
fa
fc
fb
fb
01
00
02
01
fd
fb
02
fd
ff
fe
01
ff
02
fb
fa
ff
fd
03
03
fb
02
02
fd
03
fb
ff
fc
fe
fe
fc
01
fd
01
04
03
ff
fe
fe
03
03
00
fe
02
00
03
01
00
04
fe
fd
fe
fb
03
ff
03
fc
04
fc
03
04
fd
00
ff
02
fe
fc
fb
fb
02
04
03
02
03
01
ff
03
fb
fb
01
f9
02
fb
03
02
fb
fd
fe
00
03
02
fc
fd
fc
fd
ff
fa
00
05
01
01
fd
05
03
02
fd
03
ff
00
00
fb
fa
fd
03
fb
00
00
fd
ff
ff
00
04
02
02
fc
00
02
fc
00
04
03
f9
fe
04
03
fe
fc
01
fb
ff
ff
03
fe
00
fd
fb
fb
00
fb
02
02
01
04
ff
fd
fc
ff
03
fb
ff
ff
fb
fc
fe
ff
fd
fd
02
fe
01
00
04
02
00
fd
02
ff
03
fb
ff
01
00
03
fa
01
00
02
02
02
ff
ff
03
ff
01
02
fc
01
fb
00
03
fb
ff
02
fc
02
fd
fc
fe
fd
fd
fb
fb
00
04
fe
04
fb
ff
fc
04
ff
fb
01
fe
02
fc
fc
04
01
01
fc
ff
00
02
01
fd
fd
fb
00
03
00
03
ff
00
fe
fc
ff
03
02
00
02
00
03
fb
02
fb
fd
05
03
01
ff
02
00
ff
01
fe
00
03
fe
02
ff
04
fe
fb
fd
fd
02
ff
02
ff
fd
fd
03
fb
03
01
ff
fc
04
fb
fe
fb
01
00
02
fe
04
ff
fe
02
02
01
ff
00
05
ff
03
03
ff
ff
fb
fd
00
00
01
03
fd
05
03
fe
fd
fb
03
01
fd
fe
02
ff
fb
fe
fb
fd
fa
ff
fe
00
00
fd
fb
01
02
01
ff
02
fc
fd
ff
fd
02
05
fd
03
fd
02
05
fd
ff
03
02
ff
00
00
05
01
02
03
fd
fc
fe
00
01
03
02
fb
04
03
fd
00
00
01
ff
fc
00
fe
fc
fe
03
ff
fd
fe
00
fb
fd
02
00
03
04
03
fc
01
ff
fb
01
fc
fd
00
03
fd
fe
01
02
ff
fd
01
00
fc
02
02
ff
03
00
ff
03
02
ff
fc
02
05
02
fe
fc
fb
ff
00
fe
fd
fd
02
03
00
00
04
00
00
fe
fe
ff
fb
01
fc
02
fe
05
fe
03
fb
01
fb
ff
04
fc
fd
ff
fe
fe
fc
ff
ff
00
fd
00
fe
fe
ff
00
01
05
fd
01
01
fc
fe
fc
01
fc
02
00
fc
fd
01
ff
05
ff
fd
fb
04
02
00
fb
02
fb
02
ff
fe
ff
03
fc
fc
05
fe
03
00
03
00
fb
fe
02
04
04
02
fe
01
fd
04
fc
fc
01
02
ff
fe
fe
03
01
ff
fc
03
fc
03
00
fc
01
03
fb
02
01
05
00
ff
01
fd
05
fc
fa
01
ff
ff
fc
02
00
fc
02
fe
04
fe
ff
ff
05
ff
01
fe
fb
03
fd
fd
02
00
02
fb
00
03
fb
fe
fe
fd
fe
00
fc
fc
f9
00
01
fc
01
fc
03
fb
02
fe
fc
fe
03
04
01
ff
f9
00
02
02
ff
01
f9
fc
fb
fc
00
fd
02
fb
01
fc
ff
fe
fe
fd
fd
fe
fe
fd
fb
fa
ff
03
fb
fd
ff
00
fe
fe
fc
fc
01
fd
fd
03
fa
fb
ff
fd
fc
04
00
fe
fd
01
fc
00
00
fc
fb
00
01
00
03
03
00
01
fd
fd
ff
03
01
00
03
03
01
04
02
03
00
fb
04
fe
00
00
01
ff
00
01
fe
01
fe
02
fe
fe
fd
03
01
fc
01
01
05
03
fe
00
05
ff
00
02
01
fc
fd
fd
fc
ff
03
03
02
fd
fb
03
fd
02
00
fe
01
fc
fe
fe
fd
fe
03
fd
03
02
04
fe
01
03
fd
01
fd
fc
fd
fe
ff
02
03
00
fb
01
01
fe
fb
ff
fc
fb
fb
02
fd
02
02
fb
05
02
fa
05
02
fd
00
01
00
05
fd
00
fe
fb
fe
fc
04
01
01
fe
01
fe
fc
01
fd
fe
fc
04
04
ff
01
fc
05
ff
02
02
04
fd
ff
02
04
ff
fb
03
fe
ff
fc
fb
04
fd
01
fc
fd
03
fd
04
01
03
03
fc
fc
ff
00
fd
04
04
fc
ff
03
04
00
01
fc
01
03
05
04
01
fa
08
05
fd
f9
fc
03
f3
fd
f3
0e
ff
fc
f2
ec
f6
fb
01
f9
0c
06
1a
02
f2
14
04
fc
03
f9
03
02
fe
ec
11
07
05
04
fb
ff
f5
0d
ec
1c
f8
fd
e8
0e
f5
fc
00
05
18
05
f7
0a
e2
13
12
0a
07
f8
1b
fa
fa
05
0b
f1
f9
fd
e5
07
fc
fc
e9
0d
00
01
f9
fb
fd
fa
f5
02
fd
0c
0c
01
0d
00
05
04
f4
04
f9
e8
08
fd
09
07
0b
f6
17
08
07
09
ef
0c
fa
ee
f2
07
00
f1
f1
12
02
0e
11
07
05
fe
05
15
03
eb
09
08
09
12
09
1e
ed
0d
fa
fa
f2
01
f5
0f
fb
f7
0c
fb
05
0c
e7
fc
01
fe
01
00
ee
05
07
10
13
fd
fc
03
04
fe
08
03
0d
fd
f9
fe
fa
05
f9
00
fa
e9
0b
f3
ec
f5
07
01
06
0e
02
0c
f3
fd
05
14
06
08
0f
14
fe
f2
01
14
0b
fb
0c
fa
f7
f8
0e
04
f6
fa
eb
fa
03
04
00
fa
00
f4
05
0c
01
f1
17
ff
fd
f0
05
0c
09
03
00
05
08
fa
ff
03
07
f5
16
11
fc
04
f6
f0
08
05
f5
0d
0e
03
f7
00
02
ff
0a
0e
0e
f5
fb
00
0c
0a
ff
0d
0a
0a
fb
f5
fa
13
07
0a
06
07
f4
e7
fc
ff
f9
01
04
fd
0b
0e
06
fa
0e
21
f6
05
f8
06
18
f0
03
e3
fe
fe
ec
f0
fa
0d
0e
f9
07
fb
09
ff
05
0b
00
ff
02
0d
12
00
03
f8
02
f1
02
10
fb
f2
ff
ed
0a
03
01
03
fb
06
f9
fd
08
15
f9
ec
07
e7
03
06
0d
f2
fc
00
17
0f
03
f1
11
00
ff
f9
13
0f
01
fd
0c
1e
f0
11
03
02
f9
08
f5
eb
02
e0
04
e9
08
04
f6
07
e8
ff
03
0e
07
f3
0d
11
07
07
06
1e
f7
03
0a
07
ea
fa
e9
0e
fb
fd
01
22
14
00
f6
fb
04
08
f6
f6
10
10
05
12
f8
ef
0a
fa
f6
fd
01
f1
07
ec
05
f7
f7
fe
fc
ff
fa
f6
f6
04
03
04
07
02
fc
fa
fb
f5
09
fd
df
06
e3
0d
01
03
0d
f4
06
f7
fd
e8
01
02
d3
1a
ee
f5
f1
09
ef
ed
fc
f8
f1
11
f4
f4
03
fe
04
09
1c
fa
00
14
0d
1b
04
16
0c
f6
f4
fa
fc
e0
f6
01
16
09
f6
fa
fe
ff
06
01
00
ff
00
fd
f9
1d
0b
f8
18
fa
0f
07
07
fa
f8
0c
f5
e6
ec
03
01
01
f8
07
f7
f9
05
10
07
f3
03
09
03
eb
ec
fa
fc
12
04
0a
13
f8
15
00
06
fa
ef
01
0e
f9
06
fc
fe
09
ee
0e
08
ea
06
f6
00
0b
13
fe
fb
03
fa
11
ec
06
12
f1
02
fa
14
09
03
19
09
00
03
0b
f8
f1
fa
03
01
f6
f8
07
0a
f2
06
0c
01
f8
0e
f0
f1
04
f2
07
ff
0f
12
02
f8
ff
fd
0f
18
f5
f2
0b
00
f8
f8
0f
01
ea
ec
ee
fb
09
09
f1
03
f6
0d
fd
16
10
f8
f4
f7
00
fd
04
ec
0e
03
09
ed
fc
f1
0d
f4
ec
e9
12
f2
12
16
fb
0e
f0
1c
10
08
f1
fc
f5
08
09
08
0a
06
0c
f7
f8
06
01
06
05
0c
f7
15
15
05
f4
fc
19
0f
fd
15
f4
f9
00
f5
f9
0c
fb
e9
f7
f8
0f
03
f4
04
f4
fa
17
00
ed
12
fc
02
09
05
0e
07
fc
0d
f7
01
05
02
0f
fd
03
00
02
09
e8
f7
02
09
11
ec
06
12
f6
0a
04
fc
f9
fc
f3
04
06
f0
0d
13
f5
0d
f6
fb
0f
08
04
ff
ff
16
f9
fb
f1
09
f2
ff
06
f5
ff
fe
f1
f4
03
1c
eb
06
f7
00
0b
f2
fd
ff
f7
12
0a
e8
10
fe
f6
ff
0c
05
ef
fd
ef
f5
e8
f0
0a
08
fc
f4
f9
10
fe
09
f6
f6
03
0b
06
f2
08
f4
fd
12
ef
df
fc
01
10
fe
0c
0a
ec
0f
ef
f2
fa
fe
05
e3
05
f4
d9
02
0a
0b
01
02
e7
04
f5
ec
02
ff
03
00
f3
0b
f7
ed
fe
07
02
fe
00
03
fd
04
0f
f8
fc
0a
fd
16
0c
f3
fc
fc
08
06
05
04
ef
0b
0b
fc
0c
01
18
fd
ff
fc
fa
ff
02
fa
0a
0e
02
fe
03
fe
f6
03
04
09
f9
0c
0a
05
13
01
06
15
f8
11
fb
fa
fc
01
f5
ff
0a
fa
0c
fe
ee
f7
03
0c
03
ed
00
0a
fa
f3
1f
0e
f8
01
fc
f2
16
0a
08
0a
f4
11
f8
01
03
ef
fa
f8
09
08
fc
0c
fb
ff
ff
07
04
f7
f1
07
fc
07
23
24
08
fb
fc
07
12
08
ff
ff
f8
0e
f7
06
0b
eb
f8
f7
f5
13
ea
0c
fb
09
06
03
f9
0b
0d
fd
0d
f4
1c
f7
06
0a
fd
ff
05
03
06
13
eb
ec
0d
e3
03
ef
0f
00
02
ff
fe
01
ec
f0
fd
1c
f6
0a
00
01
f8
10
fe
11
fe
0a
13
04
05
07
fe
0a
f1
f6
03
fa
0a
00
17
07
f9
f5
f1
02
0a
fd
ff
15
04
01
09
0a
fa
10
0e
fe
03
01
02
0a
09
f9
0d
fd
fb
f7
0e
f6
0d
eb
04
11
25
09
f7
0b
fa
f9
f3
10
04
07
17
00
0e
04
10
ff
12
f6
07
01
00
07
04
0c
fa
01
0e
ee
fc
fc
0a
fe
0f
fa
01
04
19
fc
02
18
16
0c
f4
f6
03
02
09
00
13
ee
0c
f9
f2
11
04
09
fe
04
f8
f7
02
07
f0
0a
04
f9
04
fc
0d
fc
f1
01
08
fe
03
04
f4
f7
06
f3
11
02
02
fa
f3
fe
11
e9
fc
01
0d
10
02
f6
09
12
10
09
f5
06
0e
15
0b
0a
fa
12
0c
0b
05
fb
ff
0e
00
15
fd
0b
03
02
f6
ff
f6
07
f5
05
f5
02
fe
06
0f
f7
04
03
00
09
1b
11
07
ed
0d
f6
02
ff
0b
00
11
05
06
08
f0
02
05
f7
f4
ef
07
e8
ed
02
01
eb
fd
0a
03
f6
ff
06
ea
ff
01
06
ed
eb
0b
f4
f8
fa
f0
0e
06
04
f8
01
f8
eb
fc
ff
f0
ff
fd
f3
0a
f9
14
0d
f8
f4
23
fe
fa
ed
f9
04
11
00
00
fa
ee
00
03
14
04
18
04
01
14
0e
0c
12
12
17
fb
06
08
df
13
03
ff
fc
0f
01
fc
02
f5
ff
07
f8
0b
0c
f3
fe
fb
0b
fe
fa
06
07
09
0c
10
0d
04
ff
f5
03
ea
f8
0d
17
0e
fa
f0
00
10
09
ec
ff
f1
01
ff
fe
15
0d
ed
f2
f7
0c
02
04
f0
f7
fb
01
03
11
08
01
03
fa
03
0f
08
06
fc
03
0b
0c
06
00
0d
f1
02
fb
2d
fd
14
01
f3
f8
fd
f3
06
08
f7
09
05
0c
f4
04
fd
f0
fa
ef
02
ff
0e
e6
f5
f9
08
06
19
00
e6
00
24
ef
00
f5
fe
ff
f8
06
f1
07
f5
fa
08
06
f8
01
03
f2
11
f7
1b
fb
02
f7
05
f4
f4
0e
de
fb
01
f7
0b
f7
17
fb
0f
ec
f9
11
11
0a
06
01
02
ee
00
f6
1b
f7
0c
fe
04
04
f7
f9
fd
00
f9
09
0a
09
fb
ff
0d
00
06
fa
04
fa
fa
fb
f8
eb
eb
00
0d
13
19
fd
f4
01
13
0d
03
00
05
fd
ef
0c
11
fa
f4
ec
01
18
f6
fb
ff
fc
fb
02
e3
07
06
0d
00
09
fb
f2
0d
02
ff
12
07
f4
fb
08
06
f4
fe
10
03
04
f7
f3
fc
01
f8
08
fa
07
0e
fa
ef
14
fd
f6
f4
fc
05
03
0d
f4
01
06
f9
f6
04
ff
f5
00
fa
05
05
f7
04
fe
f9
06
04
0d
08
fa
0d
03
f4
00
ea
f3
fd
ff
02
07
f9
f7
02
fd
07
ea
07
01
11
f3
fe
0d
ea
fb
00
05
07
0a
12
03
fe
f3
06
f0
00
f5
08
08
01
fe
02
09
fa
00
fb
fd
05
01
02
02
f8
02
17
10
fd
e7
e4
07
ee
06
f9
0e
ee
ef
05
0f
fd
03
f8
f6
00
fc
fe
06
0e
14
f8
12
06
0c
06
f3
04
fd
10
0f
09
07
05
f8
08
ff
06
0f
fb
0c
03
00
f2
06
f0
f0
12
f9
ec
0f
12
fe
14
f7
03
21
ff
00
0c
06
00
fb
06
09
01
08
07
00
fb
ee
00
03
fb
13
fd
f3
07
08
f7
05
09
0b
f7
f2
09
0f
0a
01
f7
05
fc
0f
15
fa
04
fe
0b
f3
09
07
fb
03
10
f8
f3
05
00
f1
15
ff
03
0b
fd
f4
e2
00
ea
f2
02
f8
0f
00
f4
05
f4
0a
fb
f9
27
07
ff
00
11
fc
05
0e
09
06
0d
0c
ff
e4
fe
0d
01
15
fb
0c
ff
f2
12
e6
0b
06
08
e9
01
f2
fb
f2
0a
0f
fa
04
18
f6
0d
01
00
17
0a
00
0d
e4
09
da
00
ee
fe
0e
f5
ed
13
f8
0d
03
0d
0a
05
03
07
05
f7
f7
00
e6
0e
ff
11
22
fe
f2
fa
02
00
ff
01
07
ee
10
05
04
ff
f6
03
f5
0d
05
06
fb
f5
0d
f5
0f
06
f0
f8
04
0d
f7
0e
f1
0a
fd
f4
00
0e
fd
01
fb
0a
fc
1d
08
f8
03
06
ff
07
fb
04
ef
f5
10
ef
fb
f1
09
f7
1b
08
03
07
de
02
fc
fe
10
0b
e9
e6
0c
fd
00
0b
09
f7
0f
f6
05
0b
04
00
e4
0e
0b
f8
f1
f4
f0
f9
08
fc
21
fb
03
05
f2
ef
09
07
fe
f1
06
01
0c
0d
01
0e
12
f0
e9
05
00
e5
06
03
1a
fa
04
fb
03
fb
11
f8
09
fa
f9
0f
e6
ed
27
ea
00
dc
21
10
ee
08
f8
06
03
06
fc
02
fd
fe
ef
f7
00
08
0f
0b
02
fb
0c
0f
09
f9
f8
00
fe
f5
00
fe
07
f2
ff
00
01
0e
09
02
02
fb
f6
06
0c
f0
f6
f9
f9
f9
03
e6
13
0b
05
fe
fb
03
e4
03
f1
f8
07
f8
03
eb
f2
07
05
08
01
f9
f2
f5
f5
00
02
ec
ec
f2
fe
ec
00
ff
13
f6
0a
fc
ef
ff
08
06
fe
f7
13
f7
01
f4
09
f9
02
f2
0c
fd
04
f3
02
f4
f1
e7
e8
fe
e7
f3
07
e8
f0
fc
04
05
fc
f0
0e
0b
06
f4
fe
ef
f5
f7
fe
03
fb
fe
01
16
f4
1e
10
03
f4
12
08
ef
03
fd
f7
0b
02
0f
fa
00
0e
ff
0c
00
08
03
fb
f9
10
09
fd
19
fb
ef
fa
07
06
09
05
f4
f7
0a
f6
f6
01
fc
09
04
f8
04
fd
07
ee
ff
0a
01
00
03
02
0c
fe
03
fc
f0
00
f8
ff
f5
1a
fd
04
0a
fd
15
f2
01
00
10
f7
14
01
f3
10
01
04
f6
fb
fa
06
fa
04
01
0c
09
10
fa
f6
05
08
01
fc
05
0a
07
05
04
f6
10
18
ed
08
fd
f1
fa
03
13
1b
01
f7
ff
04
07
fb
0e
f8
ec
fa
fd
0a
04
02
ee
ef
03
fb
06
fe
fe
f8
03
05
f9
f9
fc
e8
f3
fd
10
0d
e6
f2
f2
00
ff
f2
fa
fc
09
f1
f3
01
ff
f8
f5
10
0b
ee
fb
fd
fe
f9
19
05
f7
ff
10
17
eb
0c
16
08
0e
06
fd
07
01
f2
09
02
f0
e7
fb
02
0c
0b
fe
05
11
fc
09
07
ec
ff
0e
02
ed
00
0f
f9
f4
0f
0d
10
18
04
ee
f2
f8
fc
09
f6
e9
0d
0d
0a
07
0f
03
16
0a
f5
0b
00
06
f4
1a
18
eb
fe
00
05
02
0f
04
15
02
f8
0a
f7
e7
fd
ff
f8
f5
fa
fa
f4
f8
06
e7
03
06
e1
fe
06
05
f1
ed
06
00
f7
fe
fb
f1
0b
fa
ff
0b
0a
02
f6
f2
0c
eb
ff
f8
ff
08
f5
04
00
fa
f1
f3
f5
03
fc
f6
ff
06
0b
f1
ff
f2
07
09
14
12
12
03
02
01
03
f3
14
0d
fd
fc
01
0e
13
fc
f9
fa
0c
f5
00
f5
05
e7
f5
03
f1
ed
06
f5
08
02
00
f4
fd
0a
06
02
ea
03
fe
fd
03
fb
e4
fe
0f
e9
03
fb
f5
fa
fd
09
03
0c
0c
00
f6
01
08
0d
e6
08
04
01
fe
fd
03
fb
fc
03
ff
ff
0a
01
fe
0b
00
ec
08
ee
f8
04
fe
08
fc
fd
ff
08
ed
f5
01
ed
ec
0c
fe
f8
f2
eb
f7
14
fb
ff
05
01
f0
f8
01
f8
ef
f7
09
09
00
06
f4
f9
00
13
00
e9
09
0c
e1
f2
fa
05
03
09
fc
0f
13
fd
1a
05
05
fe
fa
12
09
20
08
f4
04
f1
fa
f7
fb
0c
0b
0f
08
04
fd
fa
f4
03
e6
f9
fa
05
f8
f2
03
fb
06
08
02
fe
07
00
14
f4
01
f0
08
f6
13
ec
fc
12
0d
08
fc
06
0a
02
fb
16
f4
0d
f7
fd
fa
00
0c
03
fa
03
03
f1
f0
02
fe
f6
09
fb
0e
e5
0f
ec
e1
02
05
09
ee
f9
06
fe
f1
f3
ff
ed
ef
ee
e9
fb
07
fa
f4
fb
f9
f5
f0
fb
f8
f9
0b
fe
04
ee
f6
03
fc
ff
fa
15
09
05
05
ef
0a
1f
10
fa
fd
1c
06
10
00
ed
01
fc
f2
f1
00
0a
fd
f9
0a
fc
fd
05
e6
06
06
0a
05
fb
06
01
18
ed
ff
04
fc
fb
03
21
05
0e
00
f5
f1
fc
f8
07
fb
db
fe
fd
11
00
fc
f7
fa
04
f3
07
06
e7
ef
0d
01
e5
fb
19
03
f7
02
0e
09
f3
fa
f8
e8
03
fc
fb
fc
ef
fc
f6
22
0d
f9
09
05
f1
ed
0a
ff
ea
07
13
09
e9
fb
f7
f4
f4
f2
f8
05
f3
f4
f5
ed
f7
ee
f4
ef
e3
f0
f8
f8
09
06
f8
f6
fe
f5
fd
03
f2
04
e6
ff
fd
f3
f5
f9
f4
e8
08
f9
f1
f8
04
fd
fd
09
f9
e8
ed
ff
fb
07
f9
f3
fa
fe
04
05
f6
f2
e5
13
f2
11
ef
fe
e8
0b
03
f6
01
f5
ff
ff
04
02
f4
04
ed
fc
f5
f3
f8
f1
fa
01
f4
03
05
08
ef
ff
ec
f0
08
f4
ec
13
ff
05
fe
f9
16
f3
e7
fa
0f
00
ef
fa
f5
09
f1
fa
04
19
18
f2
0b
18
02
03
01
fa
fb
fd
01
eb
09
f9
fb
ff
fd
07
f7
fa
de
f3
08
02
fe
02
09
07
fe
f7
fb
00
0b
03
07
0b
f2
fb
08
f0
04
02
04
f3
0a
17
09
fb
fc
f7
f5
ff
00
f6
13
fd
07
10
f4
ee
ef
00
ee
ea
0a
ef
0d
ff
09
02
01
03
f8
f2
08
05
02
02
0a
f0
fd
fe
0a
08
0b
15
04
15
05
ff
0d
ff
03
00
18
f9
fa
f7
ea
06
f1
01
11
f9
fe
ed
fe
fa
05
ea
ed
f2
f9
fb
01
f3
e9
ef
04
f6
f2
fc
fc
f7
ed
ff
f8
f9
07
01
f4
17
ed
fe
00
fb
05
f5
0a
f5
04
0d
e8
f5
ec
ff
0a
fc
f1
0b
f8
ee
f6
f4
fd
00
f4
06
05
11
06
03
fc
02
f4
fe
fc
fb
07
09
14
03
fa
f2
f0
06
00
07
f6
12
f7
04
f6
f3
0f
fe
00
03
00
04
00
0e
04
04
09
0c
0d
fd
12
07
0d
ff
0a
0b
04
02
1e
ea
f6
1a
f4
17
04
ff
ff
fb
fd
f9
03
07
fb
fa
f3
05
fc
06
f8
00
fd
ed
07
03
04
01
fd
fe
df
01
16
00
f5
14
00
ff
06
f0
05
d9
05
11
f6
fc
fc
0f
fd
10
fc
fd
f7
ea
f8
e1
fe
00
e7
0e
fa
f0
e5
07
e7
11
f9
0a
fb
f3
f2
ff
06
ea
fd
0a
0f
00
eb
f3
01
19
eb
01
ff
e4
f7
fb
07
02
02
ff
0b
05
e9
0e
f4
f7
03
02
08
14
f7
f0
f2
ff
f7
f7
ee
03
04
04
f8
0c
0e
fd
05
f1
00
f1
f5
01
f8
fc
ed
1c
0a
f9
09
e8
e9
1e
15
05
f3
fe
fc
f3
fc
fc
07
e6
03
06
f5
07
ed
fb
01
00
0c
09
fd
f8
f3
fa
fb
02
0d
ff
fd
f3
01
09
f4
fc
f0
f4
01
0c
ed
08
eb
dd
07
00
00
08
f5
fc
fc
f7
0b
fd
06
fc
ed
05
fd
01
fc
0a
0e
09
02
e8
13
ff
0f
05
0c
0a
e8
04
00
f6
f4
eb
03
f8
f6
04
fd
fa
05
0d
04
02
0a
fd
06
e2
e6
f9
06
10
0b
fb
11
ed
f8
f8
f7
f0
f5
00
0a
02
ef
f5
0a
0c
f3
15
02
06
f0
0d
0f
fc
02
19
01
e7
00
ff
f6
f6
fd
00
01
01
f3
ed
07
ee
0f
09
e6
f7
f5
09
fb
07
ff
f9
07
0b
09
0c
fd
0b
05
f5
fc
fe
ff
f5
f1
fe
0b
fc
0c
09
0d
f5
fd
12
0f
fe
13
f8
19
03
0b
1b
ef
fc
ed
05
09
06
0b
0d
0e
05
fe
f8
f3
e9
fd
fe
0d
04
f7
0f
fc
ef
f5
ff
ff
09
00
ff
f6
14
0b
f7
fc
16
f7
06
fe
f7
03
f3
17
fa
04
04
03
07
f2
00
f9
09
01
fb
0f
08
00
f4
f8
fc
f9
01
0c
f8
f0
03
12
02
06
0a
f7
ec
fe
fd
12
f2
05
fc
10
fb
f9
f0
f9
0f
ec
0e
08
ff
ef
02
f8
fc
0b
ff
0f
03
f2
04
ef
06
0d
02
e9
00
04
0b
fe
17
05
0a
f0
09
0a
f3
07
ff
f4
fa
f6
02
ec
03
11
ef
04
f8
00
07
f5
fe
f2
03
01
05
fe
ec
ff
0e
05
0d
ea
04
e5
fd
02
fa
f2
ff
ff
fe
fe
f9
ed
03
00
00
03
12
fd
0e
03
09
07
f1
06
fa
f4
04
fa
fe
03
05
f6
f6
f2
0b
f4
fc
fc
02
f9
f8
fc
08
fa
13
fa
06
f2
01
07
00
03
0e
02
f7
f1
09
08
f5
f3
fe
f9
00
0d
07
f9
fb
fe
0c
f1
00
fb
0f
fe
02
ef
f8
07
f4
07
ed
0b
04
06
03
00
05
02
fd
f0
07
f8
03
10
0a
06
20
01
ec
13
f4
fa
fb
00
0a
0b
f5
f7
e6
ff
02
ff
02
0a
ff
ee
f1
ef
03
01
f5
01
ff
fc
0d
0d
19
ea
07
f4
eb
01
20
ef
ec
05
ee
f7
f5
01
f4
f5
04
ee
eb
0c
08
fc
ec
f7
05
f5
ea
fd
0c
08
04
fb
02
f3
09
f2
0b
f9
08
14
e6
16
05
08
ff
f4
08
03
f6
f7
fc
06
ee
e4
fd
0a
01
06
02
1d
08
09
02
05
04
f0
0e
f7
08
2a
f3
21
11
02
fc
f4
ec
06
f6
ed
fc
f9
12
fb
04
08
f8
fb
0a
0c
12
fb
fc
03
f7
09
00
0d
02
07
fe
fd
0a
08
01
0a
10
ff
f9
0f
e5
07
fe
fc
f6
f5
f0
0e
06
17
ff
16
0a
0c
fd
11
ff
09
12
02
10
f9
07
11
fd
0d
f5
04
00
f8
fb
fc
07
09
fa
1e
01
04
fb
1d
08
fc
fd
0c
08
f6
09
08
00
0d
0d
10
13
ff
f7
1b
10
ff
14
ff
0c
ff
03
f1
01
07
eb
fa
01
06
fb
10
fd
ff
07
ff
fc
f3
03
fc
07
02
fb
0a
09
0e
ee
0d
0f
fd
01
ff
0c
08
03
e7
ff
0e
f5
eb
16
0f
f2
f2
fb
16
fe
06
fb
fd
0d
f1
05
00
02
f3
f7
07
f6
08
f3
fa
00
f3
f8
15
02
e9
11
f6
ee
f2
06
fd
f3
f0
06
fc
01
0a
1e
f3
09
02
05
07
0f
fc
ff
06
fc
05
e9
ff
07
0c
f7
00
02
f4
fd
f7
ea
fe
05
0b
fd
01
ff
0a
04
10
f8
ff
06
03
02
0d
0b
ed
0a
0f
ef
0d
fa
f6
fd
00
04
13
fb
00
04
04
02
20
fd
09
fc
04
ff
0c
00
15
0b
ff
15
09
fa
04
ff
05
f9
00
09
16
0f
fa
f8
f8
06
ff
03
e9
17
08
f3
f7
fd
f3
13
f5
f9
08
09
06
03
ff
09
07
ff
15
05
25
01
0d
fe
ff
fe
01
0c
f3
0b
13
05
f0
fa
0b
02
0c
f4
09
13
ec
08
06
0e
f5
fb
ea
00
02
04
04
02
0d
04
13
ec
08
ff
09
09
fb
18
01
15
fd
03
fe
03
fd
05
00
e8
f0
02
f1
f6
f8
07
f2
05
fb
02
fe
03
05
00
16
ed
0f
f9
ee
18
f2
0d
e3
17
07
01
ff
05
04
e3
07
fb
fc
f1
f9
fc
00
f3
f4
0c
02
f6
07
ff
01
ea
03
f5
f9
14
08
02
11
06
f9
0f
fc
12
fd
04
ed
0d
23
02
fe
f9
fb
f4
04
23
13
0a
fb
05
04
fd
fd
fc
ff
ff
fc
f1
0d
f5
17
02
f4
05
00
09
ef
02
0c
0d
19
1c
01
fe
f2
05
f8
04
09
fe
ff
f1
1a
f8
01
00
0a
04
e1
f9
03
0b
f4
07
00
f2
08
f5
0a
16
f8
f4
0d
1b
0e
03
08
04
0b
00
19
0a
0d
01
0f
12
fd
05
02
15
03
0c
0a
06
fb
09
0f
16
f6
0e
05
00
11
0a
13
f8
07
10
0a
01
0a
14
0c
00
03
00
09
f6
f4
ee
18
02
09
01
02
fa
06
f9
10
04
fa
0d
08
00
08
00
01
04
fe
ff
f6
fc
fe
0a
f6
0f
f0
0a
0a
fd
14
0b
0a
f3
02
07
f5
09
f2
14
fb
0b
00
02
00
f2
03
08
05
ff
fc
f9
f0
0a
f8
f8
e9
06
fa
04
01
0a
f0
0f
0a
f2
0a
ef
f0
fd
f8
ee
13
0c
f9
fd
09
fa
ea
e9
0d
fb
fa
f2
0c
05
03
04
f3
f1
f8
f6
16
fc
fd
fd
1d
f6
06
f1
01
f8
e5
ff
ea
22
f8
00
02
fc
fa
06
18
02
da
0a
fc
07
01
05
fc
f0
f8
02
08
f8
17
0a
12
ff
0a
03
ff
07
f3
14
f8
0f
f1
09
ef
02
07
0c
10
f6
f9
12
f7
0d
09
0b
f6
fd
fd
02
0d
fa
02
04
05
ea
0e
15
e8
04
03
0a
fe
04
f0
fd
09
fe
fa
d9
fd
0a
00
0e
02
fa
09
06
06
08
fe
02
fa
fc
fb
f8
06
fd
f9
f9
0f
df
fa
fe
03
f7
f3
fd
f5
02
fc
02
00
f6
f5
f3
00
07
f6
04
00
11
02
07
14
09
f0
fc
0f
f7
03
f0
0a
06
e7
f1
11
0b
fa
01
00
f8
0e
0a
fb
01
0c
ed
fe
00
0d
f4
10
0e
fd
fc
08
f4
fa
f1
fb
dd
f8
09
f8
06
fe
08
02
f4
12
fc
05
12
f2
f3
fc
12
0b
f9
08
0e
f7
fd
00
12
13
f1
f1
08
0a
fb
fa
eb
eb
1b
05
f6
15
0d
00
0d
ff
fb
ff
f6
ea
fb
f3
ed
0d
05
0c
05
04
1a
fa
08
0f
f9
f1
03
04
f3
0b
0e
17
f8
07
fe
f8
0b
f4
fa
fc
fd
03
fc
ee
fe
09
fc
fe
06
fb
fd
03
08
03
fe
fd
00
fb
05
f1
11
10
0b
e9
01
fc
01
08
fc
0c
f6
08
ed
08
05
0b
ea
f0
fe
0d
f2
04
00
12
fc
09
20
f9
02
fb
ff
04
03
17
10
0f
ff
10
f8
fb
f0
0b
04
f7
ff
0a
02
0c
06
f4
12
fa
fe
0c
0c
0f
ed
0b
f2
fb
06
17
0d
07
fd
0c
f7
0a
08
02
07
08
f7
f9
07
fe
09
0e
fd
06
f6
06
f9
fc
f5
fd
ef
01
f5
05
06
f6
01
02
ef
ee
fe
06
0b
17
ef
10
02
f2
05
14
f3
f4
00
03
06
0a
14
f6
08
05
f6
ec
0a
18
f5
f5
f6
03
06
04
f6
03
fe
fb
e5
00
fd
ee
ed
fe
04
ef
03
f8
f1
fd
f6
09
f8
06
eb
0a
ed
0a
03
fb
f3
e8
01
00
f9
f6
f8
e9
fb
00
09
f3
02
09
ef
fa
f2
f5
0c
f8
0c
08
f9
eb
07
fa
fd
e8
fb
12
fd
f9
01
f5
00
f5
06
ff
06
f9
fb
03
f6
fe
ed
00
0d
e0
f8
f0
13
f4
fd
04
fe
02
ff
07
00
fc
fa
fa
04
fb
0a
08
09
fb
03
f7
0a
fe
f2
ef
f6
e2
f7
05
02
00
04
08
ef
03
f1
0d
12
0c
ef
07
fc
fd
04
02
07
f3
f1
fd
01
f9
09
0d
04
06
fc
02
fd
0c
f5
13
fc
eb
fd
fd
f7
f9
01
09
fd
f4
f4
06
0b
f1
ed
0e
f2
ea
1c
0e
fb
fd
08
f8
f4
ff
fb
17
01
01
f7
f1
f4
04
f6
f7
01
0e
fe
f5
09
ff
f7
fc
f9
08
e8
09
00
0f
f1
0a
06
0f
fc
08
01
0d
ef
12
ee
04
fb
07
fb
1a
0f
f7
f3
05
10
05
f9
05
f8
f5
04
fa
0b
fd
01
fc
f3
05
05
0f
f8
00
10
01
04
06
fe
0a
04
1c
f1
f0
fc
10
06
02
00
f1
03
f9
f4
09
fd
f7
03
ff
09
02
0c
f7
0a
0c
fe
fa
0a
fe
0c
f8
00
f5
10
07
05
ec
09
04
0a
f6
05
05
f7
ef
06
06
fb
fc
1a
09
fb
0c
0e
02
f9
06
07
02
14
00
12
0d
17
09
f0
fc
02
0b
0f
07
11
f5
fc
f5
09
ff
f8
0a
15
13
f7
18
fb
13
12
0a
07
fe
f7
18
14
0c
17
0c
0d
1e
08
10
02
e4
2a
0a
05
f9
0f
1b
fc
fe
f6
04
10
f1
f8
f4
fd
fd
10
0d
1e
ff
fb
0a
0f
f9
ff
02
00
ff
07
08
ff
0f
02
07
f2
fe
0c
fa
08
0f
ee
0e
ff
02
f4
0c
f8
03
09
f8
01
f6
fe
0f
13
f1
09
09
0d
ed
ec
0e
f7
e6
15
fa
f0
fb
fc
1f
09
0b
ff
05
16
ff
fe
fb
f9
16
16
fa
fc
02
fc
05
fb
fd
ed
06
fe
f0
01
05
f6
01
00
f0
fe
fc
f7
fb
ee
f9
eb
fc
fa
0b
05
10
fc
0c
f9
04
17
f6
fc
05
05
02
06
05
ff
fa
f3
13
05
f1
f8
f3
0a
f4
0c
fd
f5
fa
0e
02
09
f9
f3
fe
04
fc
0a
03
f7
fa
fc
15
f4
04
00
0c
0b
10
f2
f6
06
f5
ef
00
f1
fe
07
fb
05
f7
f0
19
0f
fd
f3
fc
0c
f7
f3
02
fc
07
fe
08
0c
ff
f8
09
ec
f0
ed
03
01
02
f1
0d
f6
08
05
f0
fa
f6
fd
09
f4
fa
fa
fd
09
fb
fe
ea
0b
02
f2
0d
09
09
fc
ff
fc
f5
f2
03
06
e4
fd
f3
04
05
0a
f8
f9
ee
ed
07
fd
ed
f5
05
ff
f0
00
05
fa
f5
fc
07
f1
fa
fe
01
15
eb
0b
fc
e1
07
fe
0e
f4
01
ea
ff
0c
fa
eb
13
f2
f4
f9
14
00
01
03
0b
01
f8
06
fb
0a
fd
fd
0c
f2
11
ee
01
e4
01
0a
f9
f5
01
0a
f3
f8
fd
ed
ff
e7
fe
05
01
fc
ea
f8
f2
09
ff
01
02
03
08
fa
00
f5
01
f0
0c
f1
df
f4
e6
0c
0e
08
fa
fd
f0
02
06
04
e9
f5
02
03
f0
01
fe
f2
ed
f9
09
0f
fc
fc
03
ff
08
11
03
0a
f4
fa
fd
0f
fa
09
f1
f4
ef
f9
24
f7
0c
03
0a
03
fc
07
08
06
f8
0a
06
07
00
0f
1a
07
f3
ef
0a
0a
fe
0f
01
0e
f8
0c
02
f8
e0
f4
f7
f9
f8
0d
04
ff
fe
fc
ff
00
02
03
01
fc
03
03
ff
fe
fd
01
03
03
fc
fc
fe
fc
fc
fc
fc
fd
fd
fe
04
fc
fe
02
fd
fc
00
01
04
02
fc
fb
fe
fd
04
fd
03
03
fc
fa
fd
fa
fd
ff
fe
00
fc
fb
fb
fe
02
00
fc
fb
fb
fc
fe
fd
fc
00
fc
fa
fb
03
03
ff
fc
01
fb
02
fe
01
ff
01
fb
fd
fb
00
fc
fe
f8
fa
ff
03
01
fa
01
01
02
01
fe
02
00
02
ff
fe
02
fc
03
fe
03
fc
fe
fa
fc
fe
fe
fd
02
fe
fd
fb
fc
fe
03
00
03
00
fd
01
fc
03
fb
03
fe
fa
fa
01
fd
fd
00
fd
03
04
ff
00
fb
fb
ff
00
ff
03
01
03
f9
03
fd
fe
fa
fa
00
fe
fb
ff
fd
03
01
fe
fb
fe
fe
fa
02
ff
00
ff
ff
fe
fe
fb
02
fc
00
fc
fe
fc
fd
02
ff
ff
fd
01
fd
ff
fe
fa
fc
fd
fb
fd
ff
fe
fd
03
fe
fd
fb
02
fc
fe
fb
04
ff
ff
fb
01
fc
01
ff
03
03
01
fb
00
fe
00
fe
01
03
fd
03
00
03
01
fc
fc
fe
fc
fe
01
fd
03
fe
02
00
01
fb
01
03
00
00
00
fb
02
03
fa
fe
01
fd
03
fe
fc
04
04
fe
fd
fb
fd
01
ff
ff
fa
02
01
fb
04
02
01
04
ff
fb
03
02
fc
fe
fe
03
03
00
fb
00
fd
ff
fb
fb
fc
00
fa
fe
02
04
04
fe
03
02
02
04
02
fb
fd
fd
01
03
ff
fb
ff
fa
02
03
fc
fa
ff
02
fc
fa
fe
02
fd
fd
ff
fd
00
01
fa
00
fd
ff
fd
02
02
03
00
04
fa
fc
fd
fc
f9
fe
01
00
f9
fc
03
04
02
fe
00
02
fe
fc
fe
00
02
04
ff
07
ff
00
fc
03
00
04
fc
fb
04
03
fe
01
fc
02
02
fd
01
fd
fc
03
01
00
00
01
fd
01
fe
05
fb
ff
01
03
00
fe
fb
04
05
03
fc
01
fc
02
fc
ff
03
fd
ff
fd
fb
fc
02
fe
01
fc
fd
fe
ff
03
f9
00
fe
00
00
00
fe
fb
fc
ff
01
00
fe
f9
ff
fc
fc
fd
fd
03
fb
fe
fa
02
01
fd
04
00
02
fc
03
02
ff
01
fd
fc
fd
00
03
fe
ff
fe
04
00
fe
fc
03
ff
fd
fb
01
00
ff
02
fb
fe
fc
03
ff
00
fe
ff
03
01
02
02
fd
02
01
fc
ff
01
01
00
01
00
ff
fb
fe
01
ff
02
00
01
00
00
fe
fb
00
fb
fb
fc
01
04
00
fc
ff
02
fd
fe
00
03
00
01
00
01
fd
01
00
ff
01
fa
01
04
00
01
ff
fb
fd
fb
00
00
02
02
00
fc
fd
ff
00
01
00
fe
03
ff
04
03
ff
fd
02
ff
fb
ff
00
ff
00
fa
ff
00
00
01
f9
03
fa
fc
fb
02
02
03
fc
02
fb
fe
03
01
01
fb
00
fd
00
00
01
fd
fa
ff
00
02
fb
f9
01
fa
fb
fd
00
01
fb
ff
fc
03
03
04
ff
04
01
03
01
ff
fc
fe
01
02
ff
ff
03
00
04
03
fa
02
ff
fc
fc
fc
01
f8
00
02
fe
fc
02
fd
fd
02
fc
fc
fd
fb
04
ff
fd
00
fd
04
00
02
fd
fe
fe
fc
01
01
ff
fd
fb
02
fd
fe
01
fc
ff
03
ff
01
fe
ff
fd
00
fd
01
fe
01
fc
01
ff
02
0a
fd
fe
fd
00
00
03
01
fd
04
fe
fb
00
03
01
03
00
fe
03
02
fe
00
00
ff
fd
ff
01
02
03
ff
fe
02
fa
00
03
fe
fc
01
fb
fb
fe
05
fe
fe
fe
fb
ff
04
fc
02
fb
01
00
fb
fd
fd
fe
fc
ff
fb
03
fd
fd
fd
fd
00
01
fe
03
03
03
02
03
fd
ff
fe
fd
00
f8
02
04
fd
fc
fc
01
04
00
fd
03
02
ff
fd
ff
02
fd
03
ff
fd
03
fb
ff
fb
01
02
ff
ff
fc
00
fd
fe
fe
fc
fb
ff
fb
03
fc
04
fb
01
03
00
fe
fc
fb
06
ff
ff
fc
01
ff
ff
03
02
01
fb
02
ff
fb
fb
01
fd
fc
04
fb
03
fe
ff
02
fd
fb
01
00
02
01
fe
00
02
01
fc
01
fe
03
fc
fd
01
fb
03
fe
ff
fe
00
fb
fe
ff
fe
00
00
fd
03
01
fb
fc
fe
fd
fe
02
02
ff
fb
02
02
fe
02
fc
ff
02
01
02
ff
00
fd
fd
fc
00
fa
fd
ff
01
fe
fe
03
02
fb
ff
fa
fd
03
fb
fd
fc
fb
fd
03
00
01
fc
fc
fd
fb
fc
fd
fc
07
f9
ff
02
01
f8
fb
02
02
02
fb
fb
fd
fd
fc
03
ff
04
02
00
fe
fb
fe
f8
03
ff
fa
fb
fe
03
fe
fc
fd
fe
fc
01
00
04
ff
01
02
fe
01
fa
fb
ff
01
ff
fa
01
00
03
fd
fb
fb
fd
fe
01
02
fd
fb
fe
05
01
fb
fa
f8
fb
fc
fe
fe
03
03
00
00
02
fe
01
00
fc
fa
fd
00
00
fe
fb
ff
f8
fe
fe
fb
fc
00
fe
01
02
fb
f9
fb
ff
03
fa
fc
04
00
fd
fd
fe
fb
fa
ff
fb
01
fd
fc
fe
03
fb
fe
f9
fb
fd
fd
fc
01
03
fa
fb
f9
fb
fd
fd
fe
ff
fe
fe
fd
fd
fd
ff
f9
01
02
ff
01
fc
fb
fd
fb
f9
fd
fd
00
fb
04
ff
fe
03
09
02
03
ff
03
00
fe
fe
02
04
fb
02
fe
00
04
01
00
f8
03
fc
03
fd
00
01
04
06
fc
fa
03
fe
01
02
fb
fc
fe
fb
02
fe
03
fb
fa
fb
00
fb
ff
ff
fd
01
fe
05
fd
02
03
00
00
02
fc
fc
fd
fb
03
ff
01
00
ff
fe
ff
01
fc
ff
fb
01
fe
fd
ff
01
00
00
fc
fd
02
fb
fd
ff
fb
03
00
00
fc
f9
fe
fe
02
ff
ff
fe
fd
fd
02
00
ff
00
fe
00
fb
02
fb
ff
fe
ff
ff
fb
fc
01
04
ff
03
fb
ff
00
03
fd
fd
04
00
fe
fb
ff
03
fc
00
fb
ff
00
02
ff
04
fb
fe
fb
fd
fe
01
02
02
fa
fd
ff
03
fe
00
fd
03
00
fc
03
00
ff
fe
fb
00
01
00
ff
fb
ff
fc
fc
01
fb
fd
fb
ff
fb
04
00
04
02
fe
fb
03
fe
fc
00
fa
f9
00
01
fd
fe
fc
ff
fa
fe
01
fe
fd
fa
f8
01
fb
fc
00
fc
fd
01
fb
fe
01
fd
02
fc
03
fd
fb
02
fc
fb
01
00
00
fd
02
fd
f8
01
00
ff
00
fe
fd
fb
04
01
fe
fa
00
fd
fd
04
ff
fd
03
ff
03
04
02
02
02
f7
ff
03
fd
fe
02
04
fb
fb
fd
fd
02
fe
fd
01
02
fc
fb
fb
fb
03
fc
fc
03
ff
fe
02
fc
fc
fc
fe
00
01
fb
ff
fa
fe
fb
fd
ff
ff
00
fd
ff
04
05
02
ff
fd
03
ff
fd
fc
03
02
00
fb
fe
fd
03
02
fe
fd
03
01
01
02
ff
00
fc
fe
01
fb
fa
04
fc
fa
00
fe
03
fe
fc
fd
fd
fd
00
fb
fa
f9
fc
01
fd
ff
00
01
00
f9
fe
00
fe
00
ff
ff
fc
fd
fc
01
ff
02
02
f8
ff
00
ff
01
fe
03
03
02
00
fa
00
fd
03
04
fe
ff
02
f9
fc
02
fc
00
01
fc
04
03
ff
09
00
f9
fe
08
03
fe
fd
00
ff
fc
01
fe
03
00
fb
fd
02
03
01
fb
00
fd
fd
02
02
fe
02
00
09
fe
fd
0c
02
02
fb
03
fb
fd
ff
00
fc
00
fe
fc
fe
fc
fe
f8
01
00
fa
00
01
ff
00
00
00
01
01
fe
06
01
03
01
03
f9
ff
ff
fc
02
ff
ff
04
fe
fc
00
01
02
f9
fe
fe
02
ff
01
fa
f8
ff
00
ff
fd
fc
02
00
fb
fc
ff
01
fc
02
fd
fd
fe
fc
01
01
ff
fc
fd
02
fe
fd
fc
fc
02
04
fe
00
f8
00
fb
ff
fc
03
fd
02
ff
f8
ff
fc
03
04
02
01
00
01
01
03
fc
fe
02
fe
fb
fb
00
ff
fd
04
fe
fc
fb
fb
00
04
01
ff
fe
fb
fd
01
03
04
ff
fb
ff
fc
02
fe
02
04
ff
01
03
01
01
01
fe
02
fe
fb
03
00
fc
00
03
ff
03
04
03
ff
fa
02
fe
f9
fd
01
00
fc
00
fc
01
02
fb
00
00
03
fb
01
02
01
03
fd
ff
01
f9
fd
00
fd
ff
fb
fd
f8
ff
fd
fa
02
04
ff
f9
fb
03
fd
01
fe
01
fb
fc
ff
fc
fd
04
03
fd
05
fb
fe
fd
ff
fe
ff
02
02
fc
f8
00
fe
fa
fb
04
01
fe
02
00
00
03
00
ff
03
03
02
03
fd
ff
02
04
ff
fc
fe
ff
01
02
fd
fe
03
02
00
fe
01
ff
03
fd
fe
fd
04
01
ff
00
fa
fe
00
ff
00
f9
fc
02
02
02
01
f8
02
fe
02
00
fd
02
04
04
fe
04
fd
05
fc
00
01
00
03
fd
04
04
00
03
fb
ff
fc
01
04
02
01
fd
02
02
ff
00
fc
fc
03
ff
ff
ff
02
fc
fc
00
ff
fb
02
04
03
00
fc
fb
00
03
00
00
00
f9
fd
02
02
04
ff
fb
fd
04
ff
f8
02
ff
04
ff
09
fe
fc
02
ff
fc
fb
fe
00
ff
04
fc
fa
fd
00
01
00
f9
fc
01
fe
00
03
fc
fe
ff
fc
f9
fd
f7
03
02
05
fb
f5
00
ff
fc
fe
fc
fe
fe
03
fb
fd
01
fb
01
01
ff
fc
01
01
fe
00
fa
fb
00
00
ff
fe
02
00
04
0b
fe
ff
ff
fc
fd
fb
ff
02
fd
00
ff
fd
03
fd
04
fe
fe
fd
fe
fe
02
f8
fe
fd
ff
01
02
03
02
fb
fc
fd
01
01
fb
03
fc
fa
00
fc
fb
03
00
00
fe
fd
fb
ff
03
00
02
ff
00
ff
fb
fe
fa
fe
00
01
fb
04
00
fa
03
02
00
01
04
fa
01
fb
fb
00
03
ff
03
fb
fe
fb
01
02
ff
fd
fe
fd
02
03
fb
fd
02
ff
ff
02
fe
fe
01
fb
fc
fc
03
fc
01
ff
04
fc
00
02
ff
02
fe
fb
fb
fd
fd
02
04
ff
ff
fb
fd
fc
fd
02
fc
ff
01
ff
fe
01
fc
fd
ff
fb
fc
01
02
03
fe
fc
fb
00
01
04
02
fc
00
fe
fe
fd
fb
fc
ff
fd
00
fc
02
03
ff
ff
fc
fa
ff
01
fd
fd
fd
fe
fb
01
fe
02
fc
fd
03
00
fe
fe
03
03
ff
03
fc
02
ff
01
02
fc
fa
fe
03
f8
04
01
ff
fc
fc
04
fb
fb
02
00
fd
fc
03
00
02
00
ff
ff
04
02
ff
ff
fc
ff
02
fe
02
fd
03
fd
fc
ff
04
fd
fc
fe
05
fe
fe
01
03
fd
03
04
02
fb
01
00
02
fd
00
fc
02
ff
02
fb
fe
01
fc
00
00
fa
01
00
fc
04
f8
00
03
03
00
fc
fc
fd
fd
01
ff
fb
00
fb
ff
01
02
ff
fc
ff
fa
fb
fe
02
fc
fc
fb
03
02
f8
02
fe
00
02
04
04
fb
fe
fc
fb
fe
00
fd
01
01
fd
01
05
fd
04
04
fe
ff
fd
01
fb
ff
fb
01
fc
fd
03
fe
00
ff
01
fc
04
01
fe
fb
02
fc
01
01
ff
00
ff
fc
04
00
fd
01
00
02
00
01
01
02
00
03
fe
fb
00
00
ff
fe
02
fc
01
fe
ff
04
01
fc
03
00
fe
03
fd
fd
fa
fb
fe
fd
04
fd
01
fa
fc
02
02
fc
00
02
03
00
fb
ff
03
fb
fc
f9
fd
fc
fb
03
fe
fb
fc
fe
fc
fe
ff
02
00
fd
00
fc
00
fc
01
fc
fe
00
ff
fd
02
fe
fe
00
01
fb
fd
f8
00
fd
ff
02
00
fc
fc
04
ff
01
02
02
04
02
ff
fe
fd
08
02
fc
fd
fc
fb
01
fb
fb
00
01
fd
03
00
fb
02
fd
03
01
fb
fe
fa
00
02
fe
fd
04
fe
fc
03
fd
fd
fc
00
fb
fd
ff
01
00
fa
ff
fe
00
00
01
03
01
02
fb
00
02
03
fb
fb
00
fd
f9
01
fe
fd
fe
02
ff
03
ff
04
fe
ff
fb
fb
00
fe
03
02
fb
fd
ff
fa
fb
01
00
03
ff
05
fe
02
fc
00
fd
ff
ff
02
fb
ff
01
fb
fb
00
01
fe
01
fc
fb
ff
fb
ff
fd
f9
fd
fa
fc
00
fd
fc
00
00
fd
fd
ff
03
f8
00
ff
01
fd
00
02
03
ff
fe
00
02
fb
fd
fd
ff
fc
fe
03
fe
00
fd
f9
fc
02
fc
fc
02
fb
ff
fd
ff
ff
02
03
02
04
fe
01
fd
00
00
02
02
fb
03
fb
fc
03
fe
ff
03
fe
fb
f9
01
02
fe
01
fb
fc
fb
fd
04
fc
fb
01
fb
04
fd
04
02
f9
03
fb
fa
fa
fb
02
f9
fe
fa
f8
ff
02
fa
fc
04
fe
fd
ff
fc
fb
fb
fe
00
03
fc
02
fc
00
fe
fb
01
ff
fe
04
fc
fc
01
fc
fc
02
fb
fd
ff
01
02
f8
01
01
04
fe
fb
03
fd
fb
00
02
ff
ff
fb
fc
ff
02
02
ff
ff
fd
00
03
fd
fe
fe
00
fd
ff
fd
01
ff
fe
fc
03
fe
00
fb
fc
fb
00
fb
fb
fb
fb
fc
fc
ff
01
ff
02
fa
fd
fc
fc
fe
fd
03
01
fc
06
fd
00
03
00
ff
02
ff
03
ff
fd
01
00
04
fb
03
fd
01
00
00
fc
fe
04
01
03
fe
01
00
ff
02
02
fd
fd
fb
fb
fc
00
ff
00
fd
fc
00
01
00
fd
ff
fc
01
01
fb
00
fd
00
fb
fc
03
fc
ff
02
fc
03
05
fb
01
05
01
fe
fa
01
fe
ff
00
fc
03
ff
03
fd
00
ff
03
04
ff
02
01
fe
01
fc
02
01
fb
04
00
02
00
fe
01
f9
fb
03
00
f9
02
02
01
ff
05
01
01
01
ff
00
fd
02
01
fd
fb
fb
fe
01
01
fb
03
02
03
00
fe
01
00
fe
fc
03
03
fa
00
fe
01
01
fe
fe
03
fb
fd
01
fd
01
fe
02
03
02
fe
fb
ff
02
03
00
fb
fb
fd
03
fd
fe
fa
01
fb
fe
03
fd
fd
fc
fe
fe
04
fd
fd
00
04
01
01
03
fe
03
fc
00
fc
fc
00
03
fe
fe
ff
fb
ff
00
02
02
03
fb
00
fc
02
fd
01
fc
02
fc
03
ff
03
fe
fe
03
fe
04
ff
fd
00
01
02
fb
00
01
fd
fc
fb
02
03
03
fb
01
02
02
fb
02
00
04
fe
fb
02
fb
03
fc
fb
01
00
01
fb
03
03
fe
04
fd
ff
fb
fa
fc
f9
fd
fe
fc
04
ff
fe
fb
02
fb
fc
fb
fd
00
00
02
fc
00
fe
04
ff
03
01
fb
fc
fe
ff
fb
01
fd
ff
00
fb
00
02
fb
fb
00
fe
04
01
00
fd
01
03
01
02
02
fc
03
03
01
fc
fe
fc
fc
fd
fc
00
fb
fb
02
fa
01
04
fb
fd
00
03
f9
fc
fd
00
02
00
02
02
fe
fd
fb
fc
01
01
02
00
fd
fa
fe
02
03
fe
01
03
fd
ff
01
fc
00
03
ff
fc
ff
fd
fd
fd
01
03
ff
fc
fb
01
fa
fb
ff
01
01
ff
01
00
ff
fd
02
fb
fc
ff
fe
fd
01
fe
fb
fd
fc
03
01
00
ff
01
03
fe
fb
fa
01
00
fe
01
fe
fd
03
fd
f9
01
fd
fc
00
f8
03
ff
fc
fd
ff
ff
00
03
03
02
ff
f9
fe
ff
03
00
ff
fc
01
02
ff
fe
fd
fa
fc
f9
fa
fd
ff
00
fc
fb
fa
fd
ff
03
fe
fa
fe
ff
f8
fe
00
fd
03
fe
fe
fe
02
fd
01
fa
fa
f9
02
fb
fe
fc
fb
fe
fd
fa
fe
00
fd
01
03
fe
fd
fb
fe
fa
02
f7
00
00
00
01
00
01
fd
fa
fe
03
fb
f7
03
02
fe
fc
ff
fb
fd
03
fb
ff
fb
ff
00
f8
00
00
fc
fd
fb
fc
fe
fb
fb
fe
03
04
03
fe
fe
01
fe
fb
fd
fc
00
fd
03
fb
01
03
02
00
01
fc
01
fd
fd
06
fd
01
02
fc
ff
ff
fc
fe
02
00
02
ff
fe
fb
fc
04
fc
00
00
fc
ff
ff
fa
ff
ff
fb
fd
03
fe
ff
ff
05
00
03
04
04
f9
02
02
fb
fd
01
01
fd
01
fc
01
02
fb
02
fb
00
00
02
02
00
ff
02
00
fb
fe
02
fc
02
ff
02
fb
00
fe
ff
02
03
fb
04
00
fc
fe
fd
fc
fb
fe
04
01
fb
fe
02
fa
fd
ff
02
fa
fc
00
04
fd
ff
02
01
fc
fa
fa
fc
03
00
04
01
fb
fe
fe
fc
02
03
fd
03
fb
ff
fd
ff
fe
01
fc
ff
fc
fd
fd
fe
02
f8
fb
fd
fe
fd
fe
02
fc
fe
03
03
03
03
03
04
ff
fd
00
ff
00
ff
01
fc
00
03
02
fd
fb
00
fe
fb
03
01
fc
03
fd
00
fc
01
ff
fe
01
fb
03
fd
fe
02
02
01
fd
fb
fc
fd
fb
00
fd
fd
03
fe
fc
fa
fe
ff
fc
02
fb
fb
03
fd
00
fc
ff
02
01
04
04
00
fc
00
ff
fa
fe
fe
02
ff
ff
fa
01
fb
fd
03
03
02
fc
f9
02
01
fe
fb
fe
01
00
fe
fc
03
02
00
00
01
03
02
01
fc
fe
fc
fe
ff
03
fd
fc
00
fd
01
00
01
04
fd
00
f7
fe
fe
00
00
fe
00
02
02
ff
fd
ff
fb
fb
01
fa
fb
02
01
fc
03
00
fc
f7
fb
fe
00
fb
01
03
ff
00
f8
04
ff
fc
01
01
fe
fc
fe
02
fd
ff
ff
ff
fb
fe
00
fd
fc
ff
fb
03
00
ff
fb
fc
03
02
04
fd
ff
ff
fd
01
03
fa
01
fe
01
03
00
01
fc
00
fe
01
fb
fe
01
fb
fb
fc
02
fc
fc
ff
fe
01
04
ff
fd
01
01
fe
00
fe
fc
01
fd
fb
fe
ff
fc
01
04
fe
fb
03
fc
fd
03
00
fb
01
fd
ff
03
fc
fe
fd
fc
fc
02
00
05
ff
fe
03
00
02
03
f9
f9
02
fd
03
ff
fc
fe
ff
02
fe
fe
ff
03
fb
01
fb
02
fd
fb
00
01
fc
fe
fc
00
00
fd
f9
03
00
ff
f9
ff
fd
fd
00
05
01
fe
01
fb
01
02
03
ff
01
03
ff
02
06
fd
fd
04
ff
00
fa
fa
00
03
fc
01
04
fe
fa
02
fe
02
03
fe
fe
00
00
fe
00
fc
fd
03
02
00
fb
00
f9
00
02
01
01
fd
fb
fa
ff
03
00
fd
02
01
ff
04
fc
00
fc
02
fe
fc
fe
fb
00
fc
02
fc
03
fa
02
fb
00
fd
02
ff
fc
fb
fe
fd
00
fe
fb
01
02
fd
fa
fd
03
04
fe
02
03
01
00
02
fb
ff
00
04
04
00
fd
01
fd
00
02
fc
fc
fe
00
fe
04
fe
fe
02
03
00
fa
00
02
03
fd
fe
03
00
02
03
00
fe
fc
03
fb
fd
03
fe
00
fc
fe
fc
fb
fd
ff
fa
03
03
00
00
01
02
ff
fe
02
03
04
fe
ff
fe
fd
02
ff
fc
fb
ff
fb
fc
fb
fd
fc
02
fd
fd
01
02
00
f9
fe
00
f8
01
fe
ff
ff
01
03
fb
fc
02
fb
01
02
00
fb
fc
04
ff
ff
ff
fb
fd
ff
fd
04
03
fa
01
02
f9
fe
ff
f8
fd
fb
fd
fd
01
fe
01
fc
00
fd
fd
fd
01
fc
02
fe
01
fc
fb
02
00
01
00
fb
00
fb
fc
04
f9
00
00
fc
fb
fc
fe
fd
ff
fe
fe
04
fe
fb
02
ff
01
00
fa
01
ff
fb
fe
fe
01
04
fa
fe
ff
fd
00
fb
02
fb
f7
00
ff
fc
00
fd
03
fd
fb
03
fb
ff
01
fe
fb
00
fd
03
fb
00
00
fe
04
fc
fe
01
ff
fc
fc
ff
02
02
fb
04
00
01
fe
04
02
fb
fb
03
03
02
00
fd
fb
fe
00
02
fd
01
fd
02
03
fc
f9
fb
fb
02
ff
03
ff
01
02
03
fe
fe
00
01
00
fe
01
01
04
02
fb
02
fb
fb
ff
00
03
00
fc
00
fc
04
ff
f9
fd
03
fe
ff
01
02
f7
01
03
fc
f8
00
01
fc
03
fd
01
fc
fd
02
fc
fa
01
03
fd
fe
fa
01
02
fb
03
fe
ff
ff
03
fd
02
ff
ff
fb
00
fd
00
fe
fd
01
fa
fb
00
02
fe
02
fa
fe
fd
fe
ff
fc
00
00
03
fa
fb
01
ff
03
02
ff
fa
03
04
00
02
05
05
00
fb
fb
ff
02
fe
fe
02
03
fe
fc
01
ff
01
03
00
00
fd
fc
01
fd
00
fa
fd
01
f9
02
04
00
03
fc
ff
02
fb
00
fe
fd
02
fd
fc
fc
fd
ff
01
04
fc
fc
fd
03
03
00
fb
01
fa
01
01
fd
fe
00
ff
fa
01
fd
00
fe
fc
04
fc
fb
fe
fd
ff
03
01
02
03
ff
fd
fc
ff
02
03
fa
00
00
fc
01
00
fb
f9
fc
02
fc
fe
03
05
00
fd
ff
03
ff
03
fb
ff
fd
ff
fe
fc
03
01
02
00
fd
02
fb
fd
00
02
ff
fc
fe
fe
fd
05
fc
ff
04
00
fa
ff
fc
00
01
ff
fe
fe
03
fe
02
04
fe
02
04
fd
ff
fc
ff
fe
02
fd
01
fe
00
00
fc
ff
fb
02
fe
fd
00
04
02
fb
fc
ff
02
fc
fb
fc
03
fd
ff
02
fe
ff
02
fd
ff
fd
fe
00
fb
02
01
00
fb
03
00
00
fd
fc
fd
fd
02
02
fd
fd
01
01
03
03
01
fd
fd
fc
ff
03
fe
03
fd
02
fd
fe
00
02
01
f8
fb
02
f9
02
fc
02
f9
fc
02
03
fe
02
ff
00
fd
ff
01
ff
02
fe
00
04
00
fa
fd
fd
03
01
fe
fe
00
04
01
ff
03
04
01
fa
06
fb
fc
ff
fb
02
02
fa
fb
01
fd
ff
fe
fd
fd
f9
fe
01
01
02
02
ff
fc
fe
fe
ff
00
fc
05
03
fe
fe
fd
fd
ff
fb
04
02
00
02
ff
03
fe
fd
00
fd
fa
02
fe
fb
03
01
04
fc
fe
02
01
00
00
fa
ff
fe
fb
fc
02
fb
fd
fc
03
fc
00
fc
fb
04
fe
00
01
ff
ff
02
fe
fe
fd
ff
01
fd
00
fe
00
fd
00
00
00
fb
01
fe
01
01
03
ff
fb
fa
fe
ff
01
fd
ff
ff
fd
ff
fe
fa
04
00
00
fa
fb
00
fa
fe
fe
fe
01
fb
02
fd
f9
ff
f8
fe
ff
fb
02
02
00
01
00
04
fa
fc
fc
04
01
01
00
ff
00
01
fb
02
03
fb
04
fe
02
fd
01
00
fc
00
fa
fd
00
04
00
ff
ff
02
fc
fb
fe
ff
fe
fd
fb
00
01
03
fb
fc
03
fd
fe
fc
03
fd
04
fc
f9
ff
ff
ff
01
00
02
fc
01
ff
ff
fe
ff
fb
02
fd
00
fc
03
fd
ff
ff
01
fe
fd
fd
02
ff
fb
fe
02
ff
f9
03
fd
03
01
ff
03
02
ff
fc
00
fb
02
fc
02
ff
02
02
fc
fb
fc
ff
f9
02
00
02
fd
02
fb
00
03
ff
fa
fb
ff
fe
ff
03
01
fc
03
03
fc
fd
01
fe
00
02
01
03
ff
fb
ff
01
02
fc
fe
fd
02
fb
fb
fc
fb
fc
02
03
ff
00
02
02
fd
ff
fd
02
fb
fd
00
02
fb
01
01
fb
03
fc
fe
fe
fd
01
fb
01
fd
00
01
fd
fc
02
fc
fd
03
fb
01
fd
02
fe
fe
01
02
fb
fe
fc
fe
fd
03
ff
fc
00
01
fc
fb
01
fe
02
03
fe
03
fc
fd
02
f8
ff
01
fe
f9
fc
fb
00
fd
fd
fc
fb
fe
02
01
03
fc
fd
fe
02
ff
fe
00
ff
fd
01
fe
ff
02
fb
fb
fe
00
ff
03
fb
fa
01
fd
00
fc
04
fc
01
fd
fd
04
fd
02
fd
fe
04
01
03
02
fe
00
04
ff
00
fd
fb
ff
04
fa
03
03
fd
03
fc
03
fe
ff
fe
fe
00
fe
ff
00
ff
fc
fb
01
fe
ff
fc
fa
01
fb
02
00
01
fd
f9
fd
ff
fc
02
04
ff
fd
fb
01
03
02
00
00
fd
00
fc
fd
fb
04
fd
01
02
00
fc
fd
03
01
ff
00
fe
fd
fc
01
fa
fd
00
03
04
01
00
fb
01
03
ff
fa
01
fd
ff
ff
fc
fc
fd
01
fc
fa
fe
fb
f7
fb
03
03
fb
02
05
fd
ff
06
ff
ff
03
00
fc
00
ff
00
fa
00
fa
fa
fd
fa
05
fe
fd
03
01
02
f9
fc
fb
fa
ff
01
fe
00
03
01
fd
01
fc
ff
01
fa
ff
fb
00
00
fe
00
ff
00
fd
00
fe
fe
02
00
fc
02
fc
04
fc
fc
00
fd
fc
fa
ff
01
02
00
fb
fa
02
fa
02
00
01
02
ff
fc
03
fc
ff
04
00
fe
02
fe
fd
03
fa
ff
fb
02
fc
fb
02
ff
02
fb
02
00
03
04
fb
01
fb
00
04
fe
fb
00
03
fd
00
fc
ff
00
01
fb
00
04
fb
01
fe
01
00
02
ff
fb
fa
02
02
fc
fe
fe
fa
00
fe
01
fd
04
01
01
fb
02
01
fb
00
01
02
fb
fb
fe
fc
fe
00
01
fb
fe
fc
fd
00
fc
ff
fc
00
fd
fe
fd
02
fe
02
03
fc
fc
fe
00
fc
03
03
03
fe
02
fd
04
01
fc
fc
ff
01
03
02
01
fa
fe
01
f9
fe
04
fc
00
fc
02
fc
04
00
00
01
02
fd
ff
fa
ff
00
fb
fd
02
02
fe
03
02
fc
02
00
fc
ff
fe
fe
fa
01
01
04
fd
02
fc
fb
01
00
02
01
fb
ff
ff
02
ff
fc
04
03
fc
04
01
01
fe
fe
04
03
fe
00
02
ff
00
01
03
04
fd
03
fe
03
03
04
ff
fc
04
02
01
04
00
00
00
ff
fe
02
f9
fe
00
fb
fc
fd
02
f9
fc
fb
00
fd
ff
05
f8
fc
00
fe
03
04
02
fd
00
fb
00
03
04
fb
fc
03
ff
01
00
ff
fb
00
fd
fc
02
fb
ff
05
fa
01
00
ff
01
fc
fd
00
fe
fc
fe
ff
01
00
fc
00
03
fd
fb
04
fc
fd
fb
fd
fb
03
01
01
01
f8
fe
00
02
00
00
fc
fc
03
fb
ff
fd
03
02
fc
03
02
01
02
fb
00
fb
00
fc
03
fa
01
01
fb
ff
fe
02
fc
01
fd
f9
fc
ff
fe
fe
fa
fd
01
03
f9
ff
ff
04
ff
fd
fe
f9
02
02
01
fb
fd
01
fe
fe
01
02
fe
fe
fd
fc
fd
02
fc
fe
02
fc
01
04
01
01
f9
02
01
01
fb
fa
fc
fb
fd
01
fe
fb
fa
02
ff
fc
fb
fa
00
fb
01
fd
00
fc
ff
f8
fe
04
01
02
fd
ff
fd
fc
03
fe
03
fd
00
00
00
ff
01
00
fe
f9
fc
00
00
00
03
ff
fc
fe
00
f9
fc
ff
01
00
fa
fe
00
fb
03
02
03
fe
fe
00
ff
fc
fb
fc
fe
fb
fb
01
ff
fc
02
00
ff
01
fc
fc
fe
fa
fe
fe
08
02
03
01
03
fe
fc
02
fc
ff
ff
00
02
fe
fd
03
fe
fd
fc
ff
01
ff
00
fd
02
fe
ff
ff
fe
fd
01
fe
01
ff
fe
01
04
02
ff
fe
fe
fb
01
ff
fd
01
03
00
01
fe
ff
fa
02
fd
fe
fb
04
fc
02
03
fd
00
fb
fb
02
01
03
01
04
f9
ea
0b
f7
fb
fe
fe
11
fc
e6
fd
04
09
18
19
f7
1a
0c
f4
fd
ea
0c
07
f5
15
02
ff
fc
18
12
10
09
01
f0
01
f6
0c
09
01
05
19
db
14
fc
03
f9
0e
fb
fc
f4
ec
11
25
07
21
fa
f9
f5
05
18
ee
fe
08
fc
f7
fb
14
f0
1b
fc
fd
09
16
eb
04
07
fe
06
0d
01
08
e4
04
fd
09
10
fd
f8
07
f5
fb
fe
0d
fb
fd
04
f6
f6
01
f8
ed
fb
f5
ff
10
00
04
11
02
f7
07
00
02
e0
fc
f2
07
04
0b
02
06
e4
fe
14
fc
ec
fd
f3
fb
ec
11
f8
1e
04
08
04
1b
0d
0c
ff
f0
02
06
fa
20
09
04
1b
09
ff
14
f1
04
f7
fa
0e
0c
f4
03
fa
05
f9
0d
02
0f
04
00
0a
0b
f9
13
10
ee
fc
16
fe
08
ef
01
0e
f8
f9
00
fb
09
eb
ec
fc
03
eb
fd
1d
03
f0
00
07
f5
fb
0c
09
fc
fd
06
fb
0b
1d
00
f2
09
01
07
12
0e
f7
03
10
f7
07
ff
09
06
03
00
0b
e6
f7
fb
fd
06
ef
f8
05
f2
e9
08
04
10
36
03
f2
1f
ef
fc
0e
18
13
01
05
06
ee
f8
0e
0c
e9
f4
01
f9
da
0f
ee
03
0b
ff
02
f6
fe
0d
06
ed
1c
0a
fd
1c
ed
1e
fe
fe
03
fe
fd
03
d9
f8
02
12
ea
f1
1b
01
0c
05
ef
1c
03
f8
08
fe
00
0a
04
08
fe
e0
ef
03
05
08
f2
0c
0a
01
06
06
03
f5
ff
06
07
02
f7
00
f1
fe
fe
02
f5
fe
15
f5
e7
08
05
fb
f6
f8
f9
06
1a
06
f6
f8
fd
0c
0a
f9
fd
0a
07
f6
f7
07
f7
ec
e8
14
e9
03
00
03
09
f7
18
fa
0b
f4
1d
f8
04
0f
03
1b
01
00
01
02
18
00
f2
04
14
0e
e9
0e
f0
f2
fb
01
17
14
00
02
04
f0
eb
dc
f0
fb
07
07
f4
fe
fe
f3
00
05
ff
fc
17
08
09
05
02
ff
0f
f2
00
f4
fb
0e
06
01
f5
04
07
0c
04
fe
f4
ec
0d
16
fa
04
14
05
11
ff
02
05
03
12
fa
f8
03
1b
fe
01
0d
f3
fc
21
e6
1f
05
00
fb
14
16
17
06
ed
0d
13
0c
12
ff
f8
ff
f8
13
09
f8
06
ee
01
ef
05
00
19
fe
fb
fa
06
ef
fe
ef
00
0f
17
0b
f4
05
f1
07
12
f8
11
ee
f5
fe
f7
17
02
f7
11
e6
fe
f7
15
fe
02
e7
05
fc
03
f7
12
0b
fa
01
0e
0e
fd
01
f7
0b
1a
04
17
f8
fd
ff
ef
07
05
ff
04
f9
03
0f
f7
f8
05
04
f6
ed
1c
fc
0d
08
00
13
0c
0e
e4
08
07
17
15
f9
0b
04
f4
17
05
0b
0b
f6
03
e4
06
04
f6
f4
09
ff
11
f7
04
f2
07
fe
01
08
fb
f4
02
00
f7
09
19
f5
fa
e9
ff
f0
06
03
11
03
0b
f7
fa
07
06
01
02
0c
fe
f7
fc
0e
0b
05
04
00
fc
00
f1
05
e3
f9
03
f2
0b
0f
04
fa
12
06
17
fb
05
fb
16
14
0f
06
df
0c
11
f4
fc
f5
ff
fc
f3
11
e7
e1
f2
05
07
0e
08
fa
13
04
07
1a
00
07
07
08
fc
03
f6
01
fc
e8
07
14
02
fa
06
09
f6
03
fd
ff
04
07
f8
03
0b
ec
03
f0
15
ff
0a
07
12
f3
0e
10
01
fb
07
f7
0d
e9
f5
0b
fb
f8
04
ed
f4
ef
f5
00
02
06
f3
0f
f8
0f
fd
f2
05
f6
f3
00
fc
0f
f8
08
19
05
e4
04
0f
ea
eb
10
ec
eb
0c
fb
05
f8
f5
0d
e8
fa
00
16
fb
0a
06
ff
04
12
ff
01
23
17
fa
17
0f
13
fc
fc
0c
0a
ef
fe
fc
00
14
f7
f9
1c
f8
ff
00
09
ed
0a
02
0b
17
07
02
05
07
f9
f8
15
eb
02
23
04
03
f9
0f
fb
0e
e8
f9
10
13
00
ec
02
fb
00
fb
17
f3
0b
f9
fc
12
f7
13
fa
12
0e
12
05
f5
0c
04
08
f6
ee
11
f6
15
10
ee
16
06
fd
f5
f5
02
08
0c
10
fb
02
05
f8
0e
fe
06
08
f9
ff
f5
0e
02
01
0a
fb
0b
02
0d
f5
11
f4
e8
ee
ef
02
0f
eb
f5
00
0f
f7
fe
00
f0
14
ff
0b
01
ff
07
04
f9
04
15
ff
0e
f4
ef
05
f1
fe
0d
fe
f3
fd
0c
f5
13
e5
f4
0f
1b
22
06
fb
04
f8
0e
03
08
fb
05
09
ff
0f
04
f5
09
fd
e7
0f
f4
fc
09
fe
04
03
04
f7
08
fd
fa
0b
13
fd
00
f6
12
00
f9
08
03
ea
f1
f9
fd
16
f2
03
04
f8
01
f8
04
07
0a
ff
00
03
08
f7
ef
0a
01
f1
0d
05
0a
0c
02
f2
0d
f4
00
f0
0d
f1
01
05
f5
fd
09
e5
ec
0c
16
fc
1f
08
11
e7
0b
ec
0c
16
f6
14
06
02
e1
10
f2
f2
0a
0d
f6
ff
f5
f7
e2
fc
ff
f0
06
f4
f2
0b
07
f1
fb
00
f6
f7
12
04
1b
f7
02
fc
09
f8
e9
04
fb
00
11
f6
20
01
01
ff
10
ff
05
fe
07
01
0a
05
08
f3
0a
f3
07
00
f0
ec
0d
04
08
19
f5
11
f3
fe
f8
10
06
eb
0a
fa
08
07
0d
04
20
0b
06
02
f8
1f
23
ea
10
0a
08
f6
05
e9
15
05
f3
f7
f8
0f
f3
fa
f6
19
1b
ff
14
f3
08
03
0e
08
11
0c
08
e9
01
08
fe
07
e6
03
f4
0c
03
ed
fa
f4
f3
00
fc
ef
f2
16
f5
0e
04
e2
17
f3
0d
fe
11
0f
09
12
0e
e3
fa
11
02
f5
f7
16
00
ed
fd
f9
0f
0f
f6
07
e0
0d
f0
09
f8
e9
e9
04
15
08
05
0b
f6
0f
fa
08
0e
12
fe
11
12
02
fe
fa
fb
18
07
ea
fc
0b
e7
10
03
04
e7
08
09
0e
03
fc
16
fd
19
e7
10
0f
f8
10
0d
08
1f
06
12
03
18
0b
fa
ff
11
fb
f9
fc
fc
08
f1
14
f4
02
f2
21
1e
ea
13
0e
09
0d
00
14
ff
0f
0f
06
ee
ef
09
0b
fd
fb
04
05
10
e5
fb
0e
01
ea
fe
f1
f5
13
fe
f1
09
00
0f
1e
fb
21
fa
17
fb
f9
17
f2
f5
05
fe
f6
fd
08
e8
fb
15
eb
17
f9
f9
fb
0f
00
f8
03
f3
ee
11
fe
ff
13
02
19
fc
19
04
00
24
fe
05
01
19
f3
17
18
fd
04
10
f9
f8
fa
08
0d
04
f5
f6
06
00
01
15
f3
08
f0
f9
13
13
17
0d
04
0f
00
05
f4
12
00
f2
fa
fb
fc
10
f2
f9
ee
03
0b
ff
14
ee
01
ed
dc
15
07
06
e8
08
eb
08
16
fd
01
1d
fb
fb
fe
06
fc
04
18
04
f7
1f
e9
10
fb
fc
f3
08
00
ee
09
e8
eb
0c
07
09
e6
fc
f3
fe
10
03
03
19
fa
ee
07
0c
e7
06
ff
12
0b
13
ef
19
fd
06
ff
f2
fd
e2
18
fc
1e
13
04
fe
fa
f5
e8
0a
00
14
06
fd
ec
fa
f8
f6
00
15
13
02
f5
04
02
05
f1
fa
16
07
f1
df
03
f7
fa
09
04
fb
10
ea
ef
fc
05
0c
06
04
08
1b
1d
00
f3
e8
ed
fe
f9
14
ea
0c
eb
fc
18
05
f5
e8
11
f8
08
0d
f1
fd
fa
ff
19
20
08
20
0f
fb
09
f6
0f
04
fe
02
0e
00
fd
05
e0
1a
16
e7
06
08
e0
d7
0a
f4
16
12
fc
09
18
ee
ff
02
f7
ff
04
f7
0b
0f
16
15
fc
03
fd
fc
00
fe
07
00
f5
00
12
ff
f3
fd
fa
fa
03
10
eb
fd
00
ea
08
12
09
09
0a
0b
09
00
06
08
f0
e4
04
f6
f1
0c
fe
0d
f8
00
f9
05
16
04
10
06
f6
fd
ff
ed
ee
0e
ef
06
07
07
ff
0a
fa
05
f8
0d
f7
0b
fb
ff
06
26
f7
f2
ff
ff
0d
0a
fc
0d
10
0d
18
f0
0c
f7
09
06
09
0d
13
ef
01
0d
0c
1b
0e
03
11
f5
06
f3
11
fc
f8
fa
04
fb
11
10
f3
fd
02
05
00
0b
eb
0d
f5
f7
0f
03
0d
fe
fa
18
fb
05
fc
12
03
e2
f8
f3
f3
fc
05
ea
e9
01
f1
05
fd
11
f6
fc
e5
11
0d
01
1b
15
0e
03
0c
ed
02
11
ee
f9
fe
f7
09
f5
07
ff
00
07
ec
07
e9
00
0a
f8
f2
10
0b
f0
f0
0d
05
10
0c
fe
01
02
19
01
f7
1d
ff
06
10
09
09
f7
01
f7
0b
ff
f1
12
08
fc
13
02
0b
dc
f9
05
da
05
fd
01
e6
f2
f7
f4
0e
fb
04
09
05
18
00
05
fa
f2
13
f4
fa
02
f1
0e
f1
f4
02
03
e9
ec
0c
03
f1
fa
fe
e7
f3
e7
fb
fa
0f
ec
f3
0a
f1
fd
01
1b
f7
09
08
f7
05
11
da
10
d0
fe
0a
f2
0b
e1
13
01
ec
16
08
0c
f9
fb
fd
fc
0a
1a
06
fe
f4
fd
0f
f8
f1
03
02
04
08
12
fa
18
0b
02
0a
fe
fe
c9
0d
f6
fa
09
0d
00
e5
f8
e0
0f
fc
0d
07
02
f6
09
00
11
fa
ff
f9
f4
13
fa
fb
ff
f4
04
12
f5
f3
d0
10
0e
07
f6
01
e3
fc
01
f7
1e
03
00
0e
f3
02
f8
12
03
08
0d
07
05
06
17
eb
18
00
fe
1c
18
e3
e9
06
0b
0a
05
09
f2
f7
ed
fd
f9
f9
fd
0d
fe
0e
0a
f7
03
fb
f9
09
fa
e9
03
fe
16
fd
f8
1e
fd
fe
c9
01
02
25
03
f7
fc
0c
ef
09
0a
ee
10
15
e7
0e
0d
04
00
ff
ff
f8
f6
00
0c
f0
04
fd
0a
fc
17
f3
f8
05
f7
0a
11
f3
f8
ed
e5
ef
07
08
ef
11
11
f9
f7
f1
05
f3
fb
eb
f5
f4
f9
05
07
f7
f4
0e
f5
07
e8
ef
ff
33
f9
f9
f7
fb
f7
14
04
0e
08
0c
05
05
04
0a
07
f1
f3
fd
f5
fa
1c
fb
09
fa
ff
fd
09
15
0d
02
0c
07
fd
06
06
0a
0a
fd
e6
05
fd
01
0d
01
fd
0f
f8
07
02
09
fb
08
0e
fd
05
1c
ff
f5
0a
f6
22
04
f7
17
1b
f4
00
05
0b
0b
ec
0b
16
04
0d
fc
fc
f5
03
f7
fa
ff
eb
f6
f0
e0
f3
f0
0b
e1
02
fd
0d
03
fd
04
08
ed
13
03
ef
f6
e8
0c
ff
fd
0b
fc
ff
fc
fb
f9
10
23
fa
ef
17
fd
03
ff
02
01
fd
18
05
14
f5
fe
ff
fc
0d
0a
0d
fb
fa
12
f8
fd
13
f8
01
01
09
12
e6
fb
ff
06
0b
f9
06
07
02
f9
fa
ed
eb
f4
08
fe
0a
ff
f2
17
f9
14
02
0b
ee
06
08
09
f4
f7
02
fc
17
12
03
ff
02
fb
fd
07
09
f9
fc
fb
d8
0a
ed
ef
13
05
f8
f2
01
ef
fb
0f
f7
08
15
f8
00
06
15
fe
02
0a
09
06
0c
e7
06
09
01
01
10
04
e0
0c
11
f0
1c
0b
18
f3
fd
fe
04
0f
02
0e
fb
f2
00
ee
fb
f6
0c
03
0c
0c
fb
02
08
00
06
f8
06
ff
e6
17
09
15
ff
14
ea
07
02
f5
06
06
fd
fd
0e
fa
03
13
05
fe
ff
ff
fc
04
04
f3
ff
fa
f5
15
05
f8
f5
11
06
ec
00
01
02
f9
f2
ed
12
10
14
fe
07
fe
04
1d
00
fa
e8
fa
f5
fa
fd
f1
13
ee
02
08
0f
ee
e9
0e
0f
00
e8
0e
f5
ee
f9
f2
ff
05
07
08
02
0d
09
08
05
fa
16
ef
f0
04
f4
f1
18
f9
08
0e
10
05
f6
05
06
20
00
07
03
fa
0e
fd
fd
10
0a
13
ff
1b
0b
06
0f
00
05
f5
fd
11
0d
09
09
eb
fd
0f
08
fb
e7
13
01
11
15
f9
f2
f1
f4
10
07
0a
03
13
ff
fb
0c
1a
09
f6
e1
fa
00
11
ff
14
05
06
f9
1c
0a
fb
0d
0a
fc
10
ff
02
fd
20
00
01
ef
10
15
05
1d
06
04
05
17
07
f5
01
f9
03
f7
09
04
ff
f5
10
ed
05
fd
f0
f4
06
1e
03
fe
f9
09
ff
f2
1b
ec
06
13
01
0c
03
06
f2
f8
f7
ff
12
fc
ec
f2
05
f9
0c
00
e3
fb
f6
eb
10
08
ef
11
15
02
1b
10
03
f6
00
09
f4
fb
fd
0e
02
04
ef
ed
07
00
ef
11
ff
02
fb
ec
03
ea
f8
0f
21
0a
e9
f5
08
f2
f2
f8
04
e3
f3
0d
03
06
fb
fd
fd
fb
f5
f5
fe
08
08
f7
f1
02
fa
f1
02
f4
0b
fb
fa
10
f6
00
f9
03
0f
f3
0f
ff
fc
0b
00
fc
02
fa
0c
0b
0a
f5
f7
ee
06
03
e8
fc
fa
f6
19
02
ff
06
ee
12
ef
0e
0a
19
fb
ef
0c
fb
0c
11
f3
ff
f0
10
f6
03
03
f3
0e
f7
f6
10
00
fd
06
fc
16
f5
fe
02
04
fb
11
fe
03
2d
00
f7
12
ff
0c
08
04
03
f4
0c
fc
02
ee
04
02
03
e7
01
04
04
ed
ff
f4
f3
15
06
d9
07
10
ff
eb
f4
e8
08
0a
f9
0a
0d
03
01
02
f5
ff
01
05
0a
ef
e9
03
fd
e7
f9
03
0c
04
f3
0a
f6
12
15
09
0e
f2
06
f7
01
0c
fe
02
09
e5
00
01
fc
fb
fb
ee
fa
fd
fc
eb
11
ed
fc
fa
1f
00
0f
0a
f9
f1
f6
0d
04
ed
fb
01
f9
11
03
06
07
f7
f7
fc
f8
02
cf
ed
04
df
f5
0b
08
e8
03
f7
fa
0b
f7
0a
06
04
0c
0c
07
fb
06
f7
11
18
03
fc
20
06
1d
10
01
ef
fa
f9
f5
fd
03
f0
04
f5
0a
03
03
0c
eb
fe
0d
07
01
06
16
00
fe
0b
f9
0d
f0
01
11
06
0b
0a
05
1a
f5
f3
0e
06
ea
f8
08
fa
13
09
f5
f4
f2
0a
f0
13
04
02
04
09
06
01
0f
0f
0b
03
03
00
11
12
f9
13
12
04
f9
10
05
fb
fd
17
f6
14
15
f2
14
0a
f2
fd
01
ff
fc
fb
11
19
f9
09
fe
1e
16
07
fa
fe
03
05
fd
fc
f7
02
04
04
ed
f6
f1
08
02
f2
0b
0a
09
12
12
0d
0d
18
f3
1e
02
0f
ff
fd
0a
07
00
fd
0f
16
10
f6
f8
f6
f8
00
ff
ff
fe
12
01
10
fc
07
ed
08
14
fc
14
18
f8
08
09
fd
f9
03
09
02
02
07
0f
16
28
11
f8
f7
0e
00
ff
fb
08
01
07
fc
05
02
f5
ee
08
04
fb
ff
02
03
01
04
e8
f9
0b
03
0e
fc
02
03
08
ff
01
0f
ec
05
08
f3
0b
05
0e
05
ff
0a
ee
08
0a
fc
f2
16
f8
0f
26
1c
0b
00
1c
ef
ff
05
0b
ff
f1
fa
02
00
f8
00
fa
05
f5
00
08
18
fa
01
ea
ff
fe
1c
03
fe
05
16
f2
12
f6
02
13
0b
f7
f9
fd
f9
13
ee
fc
13
f9
03
06
14
fb
04
fc
16
04
01
10
0d
0a
f3
06
0e
05
03
04
0c
12
01
11
f5
02
ee
01
06
f6
f6
ff
df
fc
e3
06
f8
f9
09
fd
0b
f4
05
00
f0
19
0b
ec
03
fa
f5
fa
07
02
06
0d
fa
fd
fe
0e
f3
08
fb
01
fd
fd
0e
02
00
ff
f8
08
09
03
09
08
02
f0
08
ea
0a
01
08
f0
05
fd
ff
ff
fd
fc
00
fa
fa
f6
00
02
f9
04
f0
0e
f4
09
01
f0
fd
05
0b
fb
19
f0
05
0d
01
03
08
f0
07
13
00
00
f2
fb
f7
07
fb
e7
fa
f7
f7
13
00
03
f2
fc
ee
14
09
13
12
f6
10
01
01
0f
ee
10
01
05
15
f6
1c
0c
ff
f8
fc
fd
09
01
f3
01
01
f4
01
fc
fd
fb
fb
fc
0c
e3
fe
01
12
18
0c
e1
02
01
10
0e
1a
08
f9
10
01
13
03
e4
02
e8
15
ed
ff
04
f4
ff
fa
0f
fc
06
09
f8
f2
f8
27
13
05
f2
fb
fa
09
0f
17
f8
0d
17
fd
1c
03
f6
00
e9
fa
fc
01
06
00
f7
f2
02
03
f3
f0
f9
ef
fd
eb
13
fc
04
0e
fe
f8
0c
0f
f6
10
12
ed
17
05
09
05
03
0c
ef
18
0f
18
fe
f6
fc
f7
03
09
10
0c
15
ee
fa
fe
06
f6
19
05
fe
12
0e
03
13
01
0d
ff
12
09
f7
19
ee
04
07
02
fa
fb
fd
02
f1
0a
0f
fb
eb
ff
04
fb
03
06
02
01
05
0a
0d
fb
0c
17
fe
fc
00
18
01
00
ef
fc
04
ff
f5
00
0c
04
10
e9
f9
00
03
0a
fd
ee
01
eb
02
06
0a
13
f1
f5
0d
fd
14
f4
09
fe
d8
fd
fc
08
ee
fc
09
05
ee
