08
fb
05
f8
f5
f3
1d
f1
fc
03
e7
0e
f5
f2
f4
f2
f7
f7
f1
04
03
03
f4
fd
fe
09
00
04
f6
f9
f7
08
10
03
00
e4
e9
f2
14
fe
03
0b
f3
f9
02
fb
07
10
06
30
fd
fc
ff
f6
f3
09
0f
fe
ee
0f
0e
22
07
0c
e8
e4
02
f7
f3
ff
09
07
fe
09
0a
08
01
ef
f9
06
06
0a
fb
03
fc
0e
f4
0c
04
0e
fa
07
18
fd
0e
11
08
f0
03
e4
05
fe
0a
f5
ed
01
f0
05
00
f5
fd
08
ff
03
05
04
03
0f
e7
0c
07
f9
f2
1a
f1
fa
04
03
0a
fa
12
eb
fe
f7
01
0d
13
01
ec
04
07
e9
0c
03
fe
07
04
f4
f8
10
e6
10
0d
10
f9
0b
f6
f8
f7
02
fe
e7
06
e5
01
e4
01
03
21
f2
fc
05
fe
d7
0b
f2
fe
f5
fa
f9
0c
0e
fe
1c
f4
f8
09
01
fc
ff
fd
18
0f
f3
16
f9
0c
05
08
fe
07
fd
05
de
02
f5
ff
f8
fd
f8
0e
02
fb
13
f2
05
f4
f2
00
03
06
0c
06
f3
09
04
00
fa
fc
00
16
05
f4
07
ff
0f
04
ec
05
fe
0b
f6
0d
0d
f6
f4
f8
09
fc
fc
eb
fb
fa
fc
06
02
05
f6
0a
ea
02
0b
05
0a
fa
05
ef
f8
13
e7
07
f8
fe
0b
18
02
03
04
ed
0a
fa
ff
fc
f7
01
0e
05
fc
0f
03
fd
0a
0c
04
0b
05
03
05
fe
0b
07
f9
02
f8
05
05
10
09
fb
08
11
08
ff
0c
f5
f0
03
08
ff
f5
03
f8
08
fd
fb
0e
fb
f2
06
f9
f3
f1
0a
02
0e
02
11
08
21
12
ea
03
fc
11
09
0f
f8
f4
0f
10
12
ea
06
11
09
f9
06
fa
fc
19
f3
0a
f2
fa
05
fb
10
fb
02
f0
1d
02
f6
fe
f9
0d
00
16
fa
f6
ec
00
01
ea
ec
03
fd
07
03
fa
f6
1a
0a
10
f1
0a
fe
12
04
fc
09
10
fb
e7
05
1a
04
f1
fe
f9
00
0f
12
0b
ee
fe
0c
07
fb
04
fd
ff
13
10
1c
0a
fd
04
02
fc
ff
f1
03
11
fb
00
0f
04
f7
07
0a
fa
ee
05
14
ee
f6
06
00
e9
02
e8
07
00
0b
fd
10
06
05
11
04
f3
07
fe
01
1c
e7
ee
11
fd
f5
05
09
ff
fa
0c
00
fb
04
04
07
f1
fc
f3
eb
01
08
0c
f7
01
e8
0c
0e
fc
0a
f8
09
00
fe
ff
02
0b
00
03
08
fc
03
0b
fe
f8
f5
fd
03
fa
fc
f5
e9
eb
0c
08
fd
02
fc
03
fd
e4
fc
04
f9
07
f9
f8
0c
0f
fc
0f
fe
01
ff
07
f4
f2
f0
00
0b
f6
04
ea
0b
01
09
16
21
08
00
fc
f6
f6
f9
05
02
f7
fa
0a
07
02
ea
0e
fe
f8
fe
10
ee
02
00
fc
f9
00
fc
f3
04
f8
fc
00
00
fe
f3
08
fc
e8
f5
04
05
f9
17
00
ff
05
04
0f
ff
00
1b
03
f9
1e
03
0a
f4
f7
fa
01
f8
06
fe
fa
04
08
04
f9
01
f8
fb
0e
0d
03
10
ef
0a
10
f1
ff
f8
04
12
15
ec
00
06
f5
03
ff
0b
fa
fc
ff
01
f1
fc
07
06
0e
ff
fd
fa
04
ff
0e
0f
07
fe
00
f5
0d
ee
fe
07
06
fb
06
fb
f3
09
01
ff
f2
01
02
f8
f7
05
03
fa
01
04
f5
08
fc
f7
05
08
0b
1a
ff
f4
12
fd
f9
fc
08
ff
0e
fa
f9
13
06
06
f4
08
19
fa
f8
fb
fc
05
06
09
fa
0a
02
f1
18
13
16
13
f9
f7
08
15
f7
ec
13
09
fb
f6
fb
01
12
fd
02
f7
1d
04
0b
fa
f1
f8
eb
0b
05
04
fe
0e
00
0f
0c
fb
f0
01
05
08
06
e3
f8
02
ed
0b
00
05
0a
e5
fb
fd
09
06
15
ef
f3
ed
0b
ff
06
02
f5
f7
06
fe
f1
0b
ef
05
09
f8
fd
fc
04
0a
01
ea
03
05
f2
02
00
06
fe
f4
0f
fe
02
03
04
02
f4
fd
02
0e
07
03
00
f2
11
e8
f9
ee
fb
00
ff
0f
09
fd
10
02
09
04
05
02
fa
0f
fa
0a
fa
f3
0b
07
f9
05
fb
04
f7
f9
e7
fe
16
fb
00
04
e6
ee
06
18
f9
12
04
00
e8
f6
f2
e3
02
02
08
00
00
0b
00
f8
ef
09
0a
fb
08
00
f1
fa
11
01
05
0c
fe
ed
03
fe
08
00
08
04
00
fa
f8
0f
04
0a
02
08
03
f8
07
11
01
06
07
00
09
fa
f3
f6
01
fe
05
0d
06
f3
0a
06
00
fc
05
05
fc
ff
ed
ec
f6
10
f6
0a
0c
fc
08
01
e1
fc
ef
f6
05
f4
f4
e9
07
f3
fe
fb
f5
00
fc
05
00
07
0c
16
04
00
e5
f7
f5
08
11
0d
03
ff
00
00
ee
ff
ee
ff
f6
02
fe
f2
09
de
05
ef
12
0a
09
06
04
ff
04
00
05
09
fc
fb
f8
fd
06
06
07
f4
ed
00
f7
f8
fa
0c
ff
10
0d
03
ff
08
0f
f2
f7
13
0f
04
05
fb
ff
0f
07
fa
fb
fc
fe
f6
0a
ec
09
04
06
0b
f6
fe
05
02
0a
02
0d
10
fc
f8
06
09
ff
fd
08
ff
fc
0c
04
06
22
00
ea
05
14
fa
00
19
f9
f6
08
fe
ff
0c
05
f6
f7
19
04
09
00
f3
f7
08
02
f6
0e
f2
02
f5
ef
fe
09
04
fa
01
0b
fd
fd
fc
05
fc
ff
fb
f4
fb
fb
02
09
04
fe
ff
fd
f4
fd
06
ef
fc
01
f6
05
f4
02
09
06
06
f8
06
f8
08
ec
0a
ff
02
07
fb
05
f8
e9
f5
04
04
07
09
19
f7
03
01
fa
f5
05
08
f4
fd
05
10
04
07
f4
09
0c
04
0f
fe
f5
01
ef
f5
05
06
fc
02
ea
0c
10
16
07
0d
07
f7
1d
ec
fe
05
05
05
f0
11
10
f2
03
fd
02
03
f4
f6
f9
e6
12
fe
09
08
fb
f1
f6
07
fd
1d
fb
f5
0d
ff
ff
fd
06
0b
0e
15
f4
f2
ff
06
fb
f0
fb
fb
08
fb
d9
09
04
fd
fb
03
fe
03
ec
02
fd
09
1a
f9
f4
f8
fa
f6
ff
01
0a
f4
0f
f8
fd
f6
05
f3
f4
0a
fd
0d
00
0f
0d
fa
09
f9
0d
12
f0
fe
08
fd
04
f3
00
ff
ea
00
fd
0f
03
f9
f6
09
fe
f5
f8
f9
10
08
04
fb
00
14
09
fa
06
fe
01
17
14
fe
fb
12
fa
09
02
07
03
f1
0a
fc
0b
02
fe
f5
03
f4
f0
f2
fd
0d
0c
fe
f3
02
0b
f1
01
0a
06
fa
f7
05
f5
0e
19
02
07
f7
f5
fa
f8
05
00
02
04
15
06
f8
03
ff
07
15
06
0f
ef
02
05
08
f5
03
f1
fb
ef
fe
f8
07
0c
09
0f
04
02
01
11
11
f3
fb
0a
10
fe
fc
eb
f9
fe
02
0a
fa
fa
fb
01
fd
f6
f2
f3
f1
dd
fd
ff
0c
03
f2
13
fb
05
00
15
fc
02
fd
05
ff
00
04
e6
f5
07
f9
f9
0e
f0
eb
fd
00
02
f1
fe
04
e9
0c
0e
03
0f
fb
00
0e
fb
fb
0d
03
fd
f8
ff
0f
0c
f8
f3
1f
03
ff
06
0a
f6
e3
02
ea
05
01
f8
0c
06
1b
15
09
00
f5
11
05
fc
f8
10
fb
09
04
05
fd
f4
f9
02
fc
fc
02
fc
12
01
f7
f9
ed
00
03
08
fb
ec
0c
10
10
f0
ee
07
fa
fb
f6
07
07
07
fd
07
08
ff
00
fc
16
13
fc
19
10
09
e7
01
ef
fd
f0
fe
fa
18
07
11
06
f3
e3
fd
08
e7
ef
f2
f5
fa
ff
ef
f8
0a
f5
fc
04
f5
10
f1
03
17
fe
fc
06
06
f5
f4
f2
12
12
00
09
f9
ee
f6
f9
e5
f6
f1
0d
0f
f7
ff
0d
0c
f0
fb
01
05
ff
f4
fb
13
fa
01
09
10
0f
01
02
03
09
07
f6
ee
03
0d
03
ff
f8
fa
fd
14
05
06
0f
05
03
11
12
07
0a
14
16
ff
fb
01
10
12
01
0f
14
fe
0d
00
04
fb
02
ff
15
15
f8
08
f8
02
f9
08
ef
02
f7
ef
00
fd
fb
0d
f7
04
03
00
0b
f4
07
f2
fd
03
ff
eb
00
fc
f4
0e
fb
06
fb
f7
f4
1d
01
fc
07
fd
04
0d
18
04
fc
0f
15
19
0a
0a
07
01
09
f9
11
0f
01
fa
fb
0c
f8
ec
0a
02
f6
ff
02
07
f5
f9
09
04
ff
05
06
fc
10
e6
03
fa
f0
1d
ff
ff
fb
fc
fa
f6
0e
12
0e
04
fd
fe
02
02
f8
fd
f4
03
f9
f6
0a
fb
e7
06
01
ed
05
02
0b
f8
f9
00
f4
06
f8
00
08
f4
fb
fb
f7
1b
fe
f5
f8
fd
fc
fd
f5
fe
16
fc
13
f8
f3
e0
01
f7
1b
f6
f9
fd
ed
0c
f4
08
09
f7
ec
f2
00
f7
0e
06
fd
f3
00
eb
00
05
f7
fe
0c
00
0d
05
fa
fa
04
ec
05
fd
03
eb
00
02
ff
f1
06
0a
ff
f5
fd
f7
f5
0c
f0
08
04
1a
00
12
f7
fc
09
f9
fa
f5
02
f3
11
f3
05
0d
fc
04
e1
06
f3
f9
fb
f3
ff
0f
09
0c
12
11
f4
00
05
1a
ff
07
01
03
fd
fe
f9
07
e9
03
05
02
f8
fe
02
15
f6
02
ed
ff
f7
f9
f8
01
02
fd
f8
16
02
fc
07
fb
fc
06
24
08
01
18
f7
14
f4
ed
02
fd
09
11
10
04
fc
f2
f8
f3
fe
fb
f0
03
0a
ff
07
02
ef
f0
0a
f9
f7
fc
fb
fb
19
fc
00
09
fe
f7
10
fd
fc
1d
02
02
e4
f2
ee
00
fc
f5
00
06
03
0d
0a
0a
f7
fa
04
f4
f3
02
07
08
0a
03
07
ff
e8
f2
10
05
16
09
0c
fc
ed
f3
fd
02
f7
f1
fe
0c
0c
04
08
0d
eb
fd
07
d5
ef
02
08
fe
04
0a
06
00
fe
ff
1e
0b
10
f0
16
f5
0b
00
e6
12
0c
03
fe
e3
05
0b
f8
07
0f
16
ea
fc
f0
ff
0d
09
f4
f3
fe
fc
f5
fe
17
0a
0b
02
0b
fb
01
03
fd
02
03
04
03
00
e7
f6
ff
05
fb
02
ff
ed
ec
f3
fa
f6
09
02
f3
ee
0a
eb
ff
04
04
0a
09
03
e4
01
0e
ec
04
11
09
18
01
fa
fe
f6
e3
1e
05
06
fe
1a
f8
00
07
fc
06
ff
03
00
f9
0a
fb
fc
f0
11
ff
0a
0d
05
07
fb
f8
0f
08
06
03
f8
f1
0e
03
f1
f6
fb
01
01
08
0a
07
15
03
f5
f7
f5
14
fa
01
fd
fa
06
1d
02
f6
f1
01
f9
08
13
0a
ff
fb
0a
f5
10
f5
ff
f2
f0
0a
ec
12
f9
ff
0a
04
fc
0b
fe
f4
07
fc
03
f4
f4
01
f7
0a
eb
01
f2
06
0f
03
f0
01
f7
f7
fe
f1
0f
fd
0f
fb
fb
f4
f2
03
02
09
ee
02
09
f8
07
f1
ff
fe
fd
f1
f1
fe
00
11
f7
f5
e7
fe
f6
f4
02
fc
ff
0c
09
0d
00
f4
ff
f6
0e
04
fd
01
05
09
fd
f8
00
00
fa
00
0a
0b
12
e6
0f
02
fa
06
0a
fb
04
0c
02
05
09
f2
fb
00
f1
fe
eb
06
f4
fc
f4
f2
03
f1
f8
ff
fc
f4
ff
11
0c
01
0f
01
fe
0c
fd
01
12
fc
0f
23
03
fa
07
fe
03
03
ff
f8
00
fc
05
ed
02
e8
0a
04
0a
06
10
11
00
dc
10
12
f1
05
09
fd
0a
1d
15
e7
ff
fd
00
e9
ff
0b
0a
fb
f5
04
0a
f4
fb
eb
08
07
02
fd
eb
00
fb
fa
f9
0b
e9
02
fd
f6
0d
fa
fe
1a
05
0a
ff
f3
f9
03
0f
1d
08
02
08
05
09
03
05
f9
f3
f8
0e
f1
10
01
f9
f7
f2
0d
ef
e4
f3
10
ff
fb
0c
ff
11
02
00
06
fe
0d
ea
11
05
03
03
01
0d
fa
09
0a
fb
13
00
0a
12
eb
e9
01
04
e5
0d
06
04
07
09
05
08
01
06
00
0b
14
05
f5
01
04
11
03
07
05
0f
06
fa
07
08
0f
02
03
fb
0b
f5
e6
f6
05
f5
ff
01
09
06
04
fb
ff
05
03
07
1a
ed
14
0c
fd
10
ff
fd
22
0c
ff
02
01
fb
0b
f3
00
ee
ed
f0
f9
04
0e
0f
06
fe
fe
f4
f2
fc
0e
0a
0b
fc
00
10
fd
fb
fc
0a
0e
06
fe
e6
f6
f9
eb
fb
ee
07
f7
ff
e6
0c
f4
fa
f5
13
02
fd
06
02
05
09
04
ec
fe
16
fd
f7
04
00
06
e5
03
ff
10
06
f5
e9
f7
f4
f3
fb
fb
fe
06
f5
05
01
04
ec
fa
ff
14
f8
0f
f0
09
0e
10
fe
fe
fa
f6
e5
fe
0f
fe
f1
f8
06
f7
f6
f6
02
ff
0b
0f
f4
12
fc
f4
03
12
f3
01
fc
06
ff
12
01
09
02
02
fc
11
00
f8
fa
f7
0a
fc
09
0d
05
ed
f9
fa
14
ff
f8
07
1c
fa
01
00
04
1a
04
e7
f4
0b
19
0d
07
f7
02
fe
f6
05
05
f6
16
f0
06
fd
07
e8
f4
06
fb
fe
fa
1c
06
09
f5
09
06
12
f1
0b
04
f5
fc
02
03
fd
00
05
0c
0f
08
02
00
02
00
13
0d
f0
0a
f4
f3
0b
01
15
f5
0e
f8
08
0f
08
f3
fa
10
0d
12
00
fe
fa
0a
02
f7
0c
0b
02
02
00
14
fd
18
fe
11
05
10
0e
fc
f7
f2
f2
01
ee
0a
fb
f9
fa
06
01
f5
02
04
f9
06
ea
07
00
0b
05
06
ed
07
18
0a
f6
02
0d
fc
f6
0c
08
10
ee
fc
f9
f5
0d
04
11
fb
df
10
fb
02
07
16
1a
fc
fa
0f
fd
06
fe
0a
f5
f3
ed
00
f0
f8
03
ff
fa
fd
fa
00
13
02
0d
fc
f5
fd
0c
04
f6
10
f6
0a
02
fa
10
0a
04
fe
ff
ee
06
01
ec
02
ed
fa
0d
01
12
00
02
fd
0b
0e
0e
ed
0c
0e
02
06
04
02
07
05
0a
03
09
02
12
16
ed
0c
f0
ee
f0
03
f4
01
07
14
0e
08
f8
07
f8
ef
0b
00
ff
ee
05
02
06
0c
fc
02
02
f9
05
0b
00
f8
fc
0a
fd
12
ea
06
fa
f7
ff
ef
0a
ef
fc
0b
06
06
01
e5
10
fd
0b
fd
e9
0a
fd
fe
07
06
0c
10
f3
f8
fa
08
00
ea
f3
01
fe
f5
04
0b
09
04
02
f9
f7
03
03
17
f4
05
fa
0b
f8
0d
ff
08
0b
0a
f5
f2
00
ef
f1
00
0a
fe
f2
fc
e5
f1
e6
f5
fc
fb
e8
f0
fc
fa
01
03
19
f5
fb
08
11
f8
fa
ed
06
ff
fc
0c
0e
0d
07
12
fe
0f
fb
f8
03
fd
0f
fd
f7
09
fd
04
0b
f9
09
fb
11
0e
19
0d
0e
07
f3
f4
07
02
fa
fd
f4
e7
02
07
10
09
f7
12
14
0d
13
fc
14
04
09
fa
08
00
0a
0b
ee
fc
02
10
03
0b
00
0d
0d
0f
02
ff
0d
0c
01
06
00
ee
03
f8
f2
0c
f7
f8
18
08
fe
02
f6
05
0d
f9
f6
0b
00
f0
0f
f3
03
08
fd
f1
ee
fd
00
02
fb
f9
f2
f6
eb
f9
0b
09
0a
01
02
06
f7
f8
03
f9
07
06
0c
f1
fd
fd
f7
04
00
f6
04
f3
f6
03
fd
0a
f3
f9
ee
08
f1
04
03
04
08
06
f9
fc
f6
fe
f5
07
fc
03
fb
fd
20
06
02
fd
fb
10
08
f8
01
fa
ff
06
01
04
ff
07
fb
00
ff
fd
02
f7
09
0b
f5
fb
f7
07
0c
ed
f6
10
fa
16
0b
fb
fd
0e
f6
ff
0c
09
0c
09
03
0c
f2
04
ec
05
ff
fb
08
f4
0a
08
f9
fb
0d
f3
0a
0a
f5
fb
f0
05
11
08
00
02
ff
07
13
12
1c
fe
00
fc
08
0a
e6
ff
f0
f7
0a
05
f3
fb
03
06
13
f2
11
ed
1a
06
fe
00
e8
00
fd
0f
f3
fb
04
fd
f8
fe
0d
0b
f8
fe
ed
11
fd
05
10
05
02
f5
e6
02
05
09
0e
f1
1a
03
12
0d
e9
04
12
06
f9
ee
01
fa
01
04
fb
e1
fc
09
ef
fb
03
13
04
06
06
fc
ec
08
02
ff
0a
f1
08
f9
0a
0f
f0
0b
fc
ee
08
ec
f9
08
fe
fc
f5
f7
01
00
ef
f7
03
05
08
06
08
11
04
0d
fe
fd
09
0b
1e
fd
fa
fe
03
11
fe
ff
0d
ec
fb
ff
05
06
09
04
02
13
e3
f4
03
fa
f2
0d
13
fa
01
f3
f9
02
0d
06
06
06
11
07
04
00
f6
f4
0d
09
03
fa
02
06
07
02
f0
0b
ec
e2
e9
e4
eb
ff
0c
f9
f3
f4
0a
1a
07
f1
0d
07
fe
10
ff
ff
fa
e3
02
1a
02
09
f8
08
f4
10
0f
f2
fe
f6
ec
f1
0e
05
04
06
f9
0c
0b
1e
12
04
f5
0a
fe
fd
09
03
f7
0f
16
fa
08
f9
fe
0b
05
01
f7
fa
ed
f9
0c
fa
fe
ff
09
fc
fb
f6
04
fc
0c
07
f0
07
05
10
fb
0e
07
09
0c
04
08
05
f9
04
05
fb
ff
fb
ed
06
ff
fc
03
ff
09
fb
fb
0c
f7
f7
12
f9
0d
14
fe
fa
f3
04
08
00
0f
05
ff
f7
fb
fb
fc
fc
f6
04
eb
f3
ff
06
09
07
f8
07
fb
01
06
00
0f
f3
fa
fd
02
07
f4
fc
0d
14
0e
ff
06
0c
14
03
0a
f0
f4
00
e6
f9
ee
02
04
fa
0f
06
f1
ff
f0
fd
14
05
f4
09
02
ea
fe
03
18
04
0d
00
11
09
ec
f4
fd
f8
0d
e9
ee
f8
f8
0c
0c
fe
0b
f2
fd
03
03
08
18
03
0f
02
f5
10
06
fd
0b
04
04
fd
16
00
eb
fc
06
ef
02
f8
ec
03
03
02
08
fb
08
fa
fa
05
13
02
0e
09
e9
0a
09
03
fd
fd
ef
0c
09
0a
0f
02
08
e8
00
03
0d
0a
ef
14
06
f3
14
00
09
fc
f0
00
fa
0c
11
03
ff
11
fd
fe
02
0e
ff
00
f4
ef
fb
0f
fc
fc
08
07
0b
19
e2
fd
f5
05
09
fa
11
01
06
01
fa
f5
08
e9
f8
e5
07
02
f9
fa
05
0f
03
f8
01
fd
f0
07
0a
f6
08
fb
ec
ff
07
f3
13
03
07
fd
f0
09
03
fe
1a
f3
0b
f7
f6
0a
fe
0c
08
00
0c
01
f9
09
0b
02
f6
fb
ff
ee
ec
fb
f1
f4
01
ff
0f
0a
f2
fc
fc
ff
02
04
f4
fa
14
0f
0b
0f
f3
f7
00
08
fc
0a
fb
0d
03
0a
fc
ff
e8
f7
fc
04
11
f9
fa
17
f8
e9
f4
fb
05
08
f5
07
0a
14
f9
03
fd
0a
fd
fc
0c
fa
11
fd
ea
02
f5
f5
f4
f5
ec
fe
02
00
0d
00
fa
f9
00
06
0e
03
0b
fb
09
03
13
f0
fe
03
f2
fa
00
0e
07
fb
eb
0a
ed
ec
f8
04
05
fb
01
fa
0c
16
01
03
fb
f7
13
05
0c
fa
f3
0f
08
0a
f5
03
0e
0b
09
03
07
00
03
fd
fb
0a
f7
08
06
00
01
07
fb
09
09
f4
03
f6
14
04
f9
fd
f7
05
09
03
fa
0d
10
ff
03
fc
fd
ef
fb
f4
ff
fc
ff
0f
ee
05
fa
0b
14
0e
08
04
05
fa
0f
04
fd
f7
0f
f5
00
0d
f9
fb
ff
f6
f0
04
f9
10
f6
08
f7
f9
f5
ed
f9
f8
0b
f8
0c
07
00
fd
f5
f6
ff
f6
13
12
f6
09
ff
fe
fe
06
02
fb
f8
0c
ff
ff
fb
01
f0
f8
f5
00
03
03
ff
04
0f
0b
05
0f
0b
0a
f7
fe
f7
f4
01
10
0e
11
0a
fe
10
f8
03
13
05
fe
0b
02
01
fd
f4
02
05
f9
14
fa
ff
f6
f9
f7
f6
01
0a
07
0b
13
eb
0e
14
04
00
f7
08
fe
07
00
f9
fc
00
ff
01
ff
e7
07
fc
fa
0c
04
08
f3
0f
14
05
f9
06
07
02
12
05
0b
2a
f9
05
03
08
fa
f7
02
f6
fd
ee
f9
06
0d
eb
fd
08
01
ef
f8
04
12
06
07
00
05
0b
fe
fc
06
eb
17
11
0b
f8
e8
0a
07
fb
0b
fd
02
01
f8
ff
0a
e8
04
0e
03
05
08
06
fa
00
0a
f8
f5
17
f0
0f
fa
08
ff
f8
04
fb
fd
0d
f6
fc
0f
03
f6
fd
01
fd
05
fa
02
f0
09
05
0f
02
f7
fe
0b
02
10
0f
fb
0d
f8
17
17
fe
06
02
00
03
05
fe
ff
08
06
06
fd
fe
ff
ec
f9
00
0d
ff
fb
04
ff
0d
f3
f2
fd
06
fd
1d
0b
10
ff
05
fe
f9
01
01
0f
f9
fa
15
05
fb
09
ed
e9
f1
fb
fc
10
08
0a
fe
08
f5
fe
08
fc
0f
09
13
0d
f3
06
fd
05
12
05
07
07
f4
fe
0c
12
e3
01
e8
f6
ed
06
fc
f8
f3
f5
fd
f3
f7
ee
fd
ed
14
fc
fd
f9
f1
03
ed
ee
f7
f6
03
f1
ff
0d
03
03
ec
f8
fc
ec
01
f4
eb
09
f6
02
01
07
00
0a
f4
f8
04
fe
f7
f7
10
0e
ff
0f
fd
04
0f
0a
00
02
07
fc
f9
fa
07
fb
ff
f6
09
04
06
fd
09
04
f3
f8
1a
fd
06
f4
05
06
03
14
f3
07
02
08
0e
00
05
f9
16
09
f2
fd
0a
fe
f9
12
03
04
06
fa
04
0d
00
f0
0e
00
0e
03
02
f0
10
09
ff
fd
f8
08
07
fd
00
fb
08
fc
04
0e
fd
10
f7
fe
ec
f8
0c
0c
09
0a
f9
f2
0d
e9
11
1d
16
0d
00
10
0b
08
f7
01
04
f4
f7
02
18
0c
02
05
ff
f8
ec
fe
f6
09
02
fd
05
ff
02
03
02
0d
08
0b
1e
14
fa
16
0e
15
f9
fa
15
fa
0b
02
0a
ed
fa
f7
07
f6
f1
04
fd
07
ff
08
1e
fc
fa
fa
0e
01
09
fc
0d
fd
05
12
11
02
f7
08
11
f6
04
fb
fa
14
07
01
03
01
f3
0f
0d
0a
0b
03
13
09
01
0a
03
06
0e
f8
13
fe
08
07
fd
f9
ff
01
06
ed
fd
f1
06
08
04
fe
fb
02
f2
ff
03
09
0e
04
18
f7
f7
07
fa
ff
09
02
0f
06
f4
02
00
0e
fc
00
0c
f9
06
08
08
05
0a
02
ef
fa
f7
f9
ff
12
f9
04
08
fb
f4
1b
04
11
fd
ff
0a
fc
0a
00
02
0a
fa
fc
f6
f4
fe
0c
fc
ff
f2
ff
ea
fd
04
f3
f2
0b
0d
0d
fa
0d
f4
f7
04
09
0f
f8
f3
f7
03
0e
ef
0b
02
fd
ff
07
00
07
08
19
09
e9
02
f1
ec
f2
f8
07
18
f8
10
0c
fd
01
0a
04
13
ec
1c
05
03
19
f8
0a
f4
08
0a
f9
05
fd
08
03
00
f5
fd
eb
e5
f9
02
0b
fa
06
fd
0a
e7
f3
ec
09
06
01
0f
ff
06
13
f8
06
fb
f9
0a
fa
f6
e9
0c
12
fa
f2
f9
f3
f1
f9
02
08
f3
05
00
f9
f1
f8
fe
fb
0a
03
ff
05
02
02
f8
03
01
ff
13
0d
fa
ed
ee
0a
fe
f3
fc
f1
fc
fc
ff
05
f7
01
00
f3
f9
07
fd
f2
02
09
f2
02
f5
08
f8
07
05
ff
03
13
f9
f8
12
f9
03
f3
04
02
fb
f4
f8
05
fa
0d
00
f2
f2
f3
02
ee
08
fc
0b
f2
fb
08
f4
ff
f9
02
0f
0c
f1
fd
fc
fe
05
e7
10
fd
02
0a
02
ff
07
04
0e
f3
00
f6
00
05
0e
ee
ff
f9
16
10
eb
fe
ff
05
01
02
f3
0a
03
ec
f4
00
02
04
fd
fd
07
fc
01
0b
0a
09
f9
f9
fa
06
06
00
0d
f4
10
0c
f2
03
fe
ff
13
f3
f7
01
10
00
f5
f5
ff
f2
03
fd
1a
07
f6
04
0c
f5
f1
01
13
f6
0c
f6
fb
08
00
0e
ec
04
f5
fd
12
fd
ef
f9
02
f8
ef
e3
05
f2
02
01
e8
02
08
01
00
ed
ff
fd
0b
fc
0c
f4
ef
17
04
0b
f6
01
f3
fe
19
05
07
04
f9
03
05
14
03
f3
fb
00
00
fe
fa
02
0f
ec
04
05
fc
10
06
01
05
01
ec
ef
fc
0a
f8
10
12
ee
f1
07
e9
fe
fe
f7
fa
ff
f3
01
05
e3
08
03
fb
0f
f8
f5
08
f4
f7
05
16
ff
08
18
0d
0d
f8
fe
fc
f6
f1
f1
18
08
f5
f2
fc
01
ff
f5
04
f8
fb
03
05
e9
f7
11
02
f4
0a
e9
f8
0a
0b
01
03
06
f3
e9
0a
ff
e7
05
01
01
fb
07
fc
06
fb
e7
0e
f4
fb
f9
06
f7
f6
00
06
f4
06
f4
ff
05
02
06
ff
0b
fc
f3
03
ff
fd
0c
02
0b
ff
04
00
f8
f6
eb
17
f3
f7
f6
0a
0a
04
00
08
f7
14
0b
06
05
04
00
09
09
01
00
1d
f0
01
05
fe
f5
fd
e9
fc
f1
e2
fc
04
fc
f2
f9
09
ec
f0
03
f3
02
0c
0c
0e
11
00
01
fa
fa
fc
07
0a
08
05
fe
fd
f8
ff
f9
f0
e7
f9
02
fa
04
f5
f2
1a
f0
fd
11
fa
08
10
13
13
04
ff
0b
f3
08
05
fa
04
0b
fc
ef
09
ec
04
03
02
00
f5
07
fd
07
f8
f8
fe
fa
f0
07
02
f9
fb
06
ec
f6
04
13
f6
07
f7
0d
fb
f0
f7
03
05
ff
fc
fe
0f
13
f7
07
00
09
1b
0e
fa
08
fd
f5
fb
f7
03
08
00
f3
fb
0f
e9
10
ff
ff
15
0a
ec
f1
09
f9
fa
e9
f1
16
00
fd
05
02
fd
10
f6
f9
f7
03
16
10
00
01
f5
12
fe
0d
02
02
01
07
f7
fe
f5
f6
0f
01
05
f5
07
e7
fb
0a
06
10
0b
13
10
11
02
04
08
02
0b
f7
fc
f5
0d
03
00
0f
02
fd
06
09
f1
f4
09
0b
14
e8
02
f7
ff
eb
18
fe
02
f5
03
00
05
03
0c
00
15
07
f1
14
fb
0f
07
07
01
f5
17
10
fc
fa
0d
e9
fb
f4
0b
08
fa
f8
0b
f7
05
fe
04
01
08
0d
16
f0
0e
fc
0a
10
fc
0a
10
f8
fb
0c
f8
f2
eb
0a
14
05
04
f6
03
f7
fa
07
04
fa
03
03
08
09
f8
18
09
f6
08
06
07
0d
ee
04
02
1d
f9
f0
17
04
ef
f8
08
14
01
f4
f8
f9
f7
fa
22
fa
f6
fe
17
e6
fd
f7
03
f6
08
eb
0e
03
00
14
01
0a
03
ee
0a
13
f5
ec
ff
06
ee
01
0c
f1
fe
01
fc
fd
f9
fa
f9
15
fb
08
0e
fe
fd
01
00
0d
06
18
f3
09
f8
fc
fb
06
fb
f0
fd
ff
1a
fd
10
df
fd
0c
17
14
f7
09
07
f0
fb
f2
08
07
05
e6
f9
ef
11
13
f9
07
04
05
f0
01
fc
08
f1
01
0a
f3
09
fe
ec
04
0a
10
f6
0c
09
f6
fa
01
fe
f8
0f
fe
07
f8
1a
15
ef
07
06
11
12
e3
fe
fb
07
11
fe
02
ec
ff
eb
f8
17
f3
fd
08
04
e8
fa
f4
f5
f2
0c
fc
fa
ee
f5
fc
fa
02
0a
fe
ff
f6
f3
ff
02
05
07
ee
ff
07
ed
f5
f1
f5
0f
f8
fc
ff
00
fe
ff
fe
ff
fb
ff
fd
02
fb
02
03
ff
02
00
ff
fb
fd
ff
ff
03
fd
01
ff
00
fc
00
fd
fc
02
fd
fd
fe
fc
fb
fd
01
ff
fc
fe
01
fd
fe
fb
fd
fc
fa
03
fb
fc
fe
04
fc
01
ff
fb
02
fb
ff
fc
fb
fe
03
01
fe
ff
fd
fe
03
02
fd
fd
01
fb
00
03
00
00
ff
fe
02
02
03
fd
fd
ff
fc
fe
fd
fb
fd
01
02
00
02
01
03
fd
04
fe
ff
01
02
00
04
fb
03
02
fe
03
fe
03
fd
00
02
fe
00
02
01
03
03
fb
fe
00
03
02
fc
03
03
fc
ff
02
fd
fd
03
03
04
fe
ff
fd
00
fd
fc
ff
fc
00
01
03
fc
fc
00
00
fc
02
00
fc
ff
00
fe
fd
03
01
02
fe
fd
00
fd
03
fe
fe
02
00
ff
fe
fe
fe
fd
02
ff
f9
02
fd
01
03
02
03
fd
fc
00
ff
02
ff
fc
00
01
02
fd
fd
fd
fd
03
fd
03
03
f9
03
fe
fc
00
fe
02
fa
02
fd
fd
01
03
fc
fd
fe
fd
fe
fb
fe
ff
fd
02
01
fd
fe
01
03
00
ff
fc
ff
00
01
fe
fb
ff
fd
00
00
fe
fe
fc
fd
00
00
01
00
02
fd
fd
02
fb
00
00
fb
ff
fd
03
fd
fa
fe
01
fd
ff
00
01
ff
03
fe
fe
fc
fc
00
fc
fb
01
fd
fd
00
fb
00
f9
fc
02
02
02
00
fd
fc
03
fe
00
fe
02
00
01
fb
fe
02
03
03
01
fd
ff
fd
fb
03
03
03
00
02
01
ff
fc
02
ff
fc
02
fe
fb
fd
02
fe
fc
fa
fe
00
ff
00
00
fd
00
00
fb
fc
01
03
fb
01
fe
fe
fc
fe
fd
01
01
ff
01
01
03
fc
fb
fc
fc
00
01
fb
04
fc
02
ff
00
03
fe
00
01
00
00
fe
00
02
01
fe
01
fd
ff
00
f9
fe
fe
02
00
02
02
fc
04
02
00
fb
01
04
ff
fd
fc
fd
fe
ff
01
fd
fc
01
fc
00
02
03
ff
fc
fe
fe
00
02
00
fc
fe
00
00
fc
00
fe
ff
00
00
fe
fb
02
fb
fd
fb
03
ff
00
01
fe
fb
fb
02
fb
fc
fb
fd
01
ff
00
fd
00
ff
fe
03
03
00
fd
ff
fa
fe
01
ff
ff
fd
00
fd
02
ff
ff
fd
00
fc
01
fd
ff
01
fe
ff
00
02
01
01
03
03
fe
02
fc
00
01
03
01
01
01
01
00
01
01
fd
02
ff
00
03
00
fe
01
02
02
fe
fc
fc
fc
ff
01
ff
00
04
03
03
fc
fe
03
ff
fb
fd
00
ff
fc
ff
03
02
fe
03
03
03
ff
00
02
ff
02
fb
fc
fe
02
fb
fe
fc
fc
ff
03
fd
ff
00
00
04
f9
01
ff
00
02
fa
fe
00
01
fb
ff
03
03
fc
03
03
fb
fd
03
00
fd
02
02
fe
03
ff
fc
02
00
fc
01
01
ff
ff
00
02
04
01
02
02
fd
00
fb
fd
fe
00
fe
03
02
03
fd
ff
00
00
00
04
fc
03
01
fd
fe
ff
03
fe
03
04
fa
fb
01
fd
fc
00
fd
03
01
fe
02
03
ff
fc
00
02
02
ff
01
01
01
fe
00
fd
fd
fc
ff
02
fe
01
04
02
fd
fd
02
fd
fb
ff
01
03
fc
fe
fc
fe
fd
00
fc
fc
00
03
00
fd
fe
00
02
00
ff
ff
fd
fc
fd
01
05
04
ff
01
fd
ff
02
fd
01
00
ff
03
fd
04
00
02
fe
fe
00
fe
03
fd
02
fc
fc
01
01
fd
fd
04
03
fb
fd
fe
03
fb
02
03
fd
ff
01
fc
ff
ff
01
03
ff
fe
fd
01
02
00
01
fd
fc
fe
ff
01
00
fe
02
00
fd
fc
00
ff
fe
00
02
03
00
02
00
fb
02
fc
fd
04
fb
00
01
fc
03
fc
fe
01
ff
fc
fb
02
fe
01
02
ff
fc
00
fc
03
fd
00
fb
ff
fc
02
ff
ff
02
ff
00
03
02
01
fd
fc
fc
00
fd
fd
fe
03
02
03
ff
ff
ff
fc
03
fd
01
ff
03
fc
ff
00
ff
ff
ff
00
fd
01
ff
ff
02
02
01
fe
01
fc
fe
fc
03
03
fc
fe
ff
fb
02
02
00
02
fc
02
fc
01
ff
ff
fc
02
ff
fe
02
fe
fd
fd
00
01
fc
ff
00
ff
fe
ff
fb
00
fc
fb
00
03
00
03
fc
fe
fd
01
01
02
fe
fd
fc
ff
00
00
fe
01
02
fe
ff
02
00
fc
fd
fc
ff
00
01
01
ff
ff
fe
00
fc
02
ff
02
ff
fd
01
01
ff
00
01
00
ff
fe
fd
fe
ff
fd
fc
00
00
fd
01
00
ff
fe
ff
02
01
fd
fe
fe
fc
fc
fd
01
fe
01
00
00
00
fc
03
01
fd
03
01
ff
ff
fe
03
fe
fd
02
03
ff
00
fe
fe
02
fd
fd
00
01
04
03
fd
01
02
fd
00
ff
fc
fd
02
02
fb
ff
01
fd
fe
ff
ff
fd
fe
fc
fd
fe
ff
fe
fb
fe
fc
00
fd
00
03
fd
fc
02
fb
ff
fd
fc
ff
fe
00
ff
00
ff
ff
ff
02
02
01
02
fe
fd
02
ff
00
02
fe
01
00
fc
00
01
00
01
02
ff
fd
fc
f9
03
fc
01
00
fc
fc
fc
01
00
04
01
ff
00
fc
fd
01
02
01
01
01
02
ff
03
fc
02
fe
fd
01
03
02
00
fd
01
00
fe
fd
ff
01
fe
01
fe
ff
03
03
02
fe
01
02
ff
fc
02
fd
fe
fb
ff
fe
03
fc
02
fe
fd
02
00
fb
ff
01
02
03
00
02
01
02
02
05
fe
fe
fc
00
ff
fc
fc
03
fc
01
02
00
ff
ff
02
fc
03
fe
fd
fd
03
fb
fb
fb
fd
fc
fd
02
fe
04
ff
04
fe
02
02
03
fb
ff
01
fe
ff
03
fc
ff
fb
fe
01
01
04
03
fd
fd
fd
03
fc
fd
00
00
ff
fb
ff
00
00
fb
01
fe
fc
ff
03
02
fe
ff
ff
fe
02
01
ff
fc
00
02
03
ff
00
fc
fe
00
fe
fb
ff
01
fc
ff
02
ff
fd
fd
01
02
ff
fd
fe
01
fd
fe
fe
fd
ff
01
00
00
00
fd
fd
fc
03
00
fe
02
fc
fc
02
03
fe
fb
00
04
fb
02
ff
01
02
01
ff
fe
fd
01
fd
01
fc
fc
fe
fd
01
02
fc
02
fd
ff
02
fd
03
fc
fb
fc
01
00
fe
01
fc
01
03
02
fd
ff
01
ff
fe
ff
01
01
fc
02
ff
00
ff
00
03
01
02
00
fd
04
ff
00
fe
fe
ff
04
00
ff
fb
fe
03
02
ff
fd
fd
03
02
fe
01
fb
02
fd
01
00
fd
fe
00
03
03
ff
00
02
fd
03
fb
03
00
ff
fe
00
ff
00
02
01
00
ff
02
fe
01
fc
03
00
01
fc
00
fb
00
00
ff
04
01
fe
05
00
03
02
ff
ff
fb
fe
ff
fe
fe
02
fc
ff
fe
ff
fd
fc
ff
02
fb
fd
01
fe
ff
ff
ff
01
ff
fe
01
ff
fd
ff
02
fc
fe
02
01
ff
00
fe
fd
00
02
02
01
fb
02
fc
fe
ff
fd
01
ff
00
01
fd
01
00
03
fe
00
fe
fc
fd
02
02
03
00
fd
03
fc
fc
fe
fe
02
01
02
02
02
00
fe
fc
fb
00
fd
fc
01
03
03
00
ff
00
fd
fe
fc
ff
fe
fe
fa
fd
01
fc
00
fb
02
fd
ff
02
01
fd
00
00
03
03
00
ff
01
00
03
fc
01
02
03
00
fd
fd
00
fc
01
fc
01
01
01
fe
fd
fd
fc
fc
fe
ff
02
01
04
03
fc
fe
fc
fc
00
fc
fe
fd
fc
02
01
fe
03
fd
fb
00
fe
fd
00
00
fc
ff
fe
fd
ff
fc
fd
00
fc
fe
03
fe
ff
ff
01
01
fe
fd
fd
03
fb
fd
02
fd
00
02
01
fd
fc
01
04
00
ff
01
fe
01
fd
00
fb
01
fc
fc
fc
fc
01
03
fd
02
03
fd
01
04
02
00
01
03
fc
04
00
ff
ff
fc
fe
fd
fd
ff
fd
fc
00
fb
fc
fe
04
00
fc
02
fd
00
fe
ff
fd
fc
01
01
03
00
03
fd
fd
00
00
04
00
01
03
fe
fc
fe
ff
fc
fd
04
00
02
fc
02
02
fc
ff
fc
01
fc
02
fc
fe
ff
02
03
02
fc
fd
01
fe
fd
f9
00
04
fc
01
fe
02
02
00
01
ff
01
fe
00
fc
01
00
fb
ff
fc
02
03
fe
01
02
ff
fd
03
fe
fe
fe
fc
00
fd
01
00
fc
04
ff
00
fe
fe
fd
fd
fb
02
00
fb
02
01
fe
02
03
02
ff
00
00
03
02
00
03
00
fc
fe
01
03
fe
fd
01
fc
fe
ff
ff
fd
03
03
01
fb
fe
fe
fd
01
ff
ff
01
ff
fd
ff
02
fb
fe
03
03
02
04
02
00
03
fd
fd
03
fe
03
04
00
fe
fb
01
fd
ff
fe
fe
04
01
01
00
fc
00
fe
03
00
fc
04
02
ff
01
fe
04
03
00
fe
ff
fd
01
fd
02
ff
03
fe
fc
02
fd
fc
01
fc
fb
ff
02
02
03
fc
fd
03
fb
fe
fe
03
fc
ff
00
fc
fc
fe
fc
fd
fd
03
00
00
02
fd
ff
fc
fb
01
ff
ff
02
00
fd
fb
02
00
ff
02
01
00
01
02
01
03
fc
00
01
fb
fc
fc
fc
03
00
03
fd
01
fd
02
00
01
01
03
fc
ff
fd
fc
00
fd
fd
03
01
fd
03
04
02
fd
ff
00
fb
fd
03
00
fc
00
00
fc
fd
fe
03
fe
00
fe
fd
01
fc
fc
02
02
fc
fc
02
03
00
02
ff
02
03
02
00
fc
fe
03
03
fd
00
00
fb
fe
ff
01
02
01
02
00
04
03
01
03
fe
00
02
03
00
fe
fe
fe
ff
00
01
03
01
01
fe
00
ff
00
02
fc
01
fe
02
03
00
ff
03
01
01
01
00
00
02
01
02
fd
fe
01
fe
03
fd
ff
00
fc
02
fd
fb
fd
01
fe
ff
ff
02
fe
04
02
fd
fc
03
fc
ff
fe
03
01
00
01
fe
ff
00
fe
ff
03
fd
fc
00
00
fe
01
fe
03
04
02
fc
01
fe
fc
01
fd
fe
00
03
ff
ff
fc
fc
05
01
fd
fe
ff
fe
03
fb
ff
02
01
02
03
fc
ff
02
fd
03
fe
fe
03
03
02
03
04
02
01
ff
01
03
fd
fe
02
02
ff
fe
fb
fe
03
fd
03
fe
fc
00
ff
02
f9
ff
05
00
fc
fe
ff
ff
fd
fb
01
ff
fd
01
02
ff
fe
fc
fd
02
fe
03
fe
ff
02
00
fd
02
ff
00
fd
fd
02
00
02
fc
fd
fd
fa
fd
ff
ff
fc
00
fc
fc
fe
fc
00
fd
fc
ff
fd
00
02
00
fd
00
00
04
03
fc
00
03
04
fe
fa
03
fc
00
fd
fe
fc
03
01
ff
fe
03
fe
04
fc
03
02
00
03
01
00
00
fc
00
03
fe
fe
fe
fe
00
00
ff
fc
ff
00
02
01
fd
fe
02
04
00
fb
fd
fc
fc
01
fd
04
fb
ff
fd
00
fd
02
00
fe
fe
f8
fb
fe
01
01
02
ff
fc
fb
ff
03
04
fd
fc
fc
fc
01
fc
02
ff
ff
01
02
fe
02
00
fc
00
ff
fd
03
ff
fe
01
02
fd
fc
fe
03
01
fe
00
fb
01
02
01
01
03
02
ff
fd
fd
fe
02
01
fc
fd
fd
00
ff
ff
fe
fd
fe
01
fb
03
fb
fb
fe
03
00
00
02
01
ff
02
fc
03
ff
fb
00
fe
fd
02
00
00
fe
fe
fd
fc
fc
fd
01
fd
fc
ff
00
ff
03
fb
01
fd
02
03
00
fc
ff
00
02
ff
fd
fe
02
fd
02
ff
00
00
fe
ff
03
01
00
02
01
01
02
fc
00
fd
fd
04
02
01
ff
fe
01
fe
02
fc
02
02
fd
ff
02
ff
03
00
01
fd
fe
03
03
fd
00
fe
02
ff
03
00
02
fe
01
00
01
02
02
fe
00
01
01
fc
00
00
fc
01
03
fe
fd
03
01
01
01
01
03
fe
fe
fe
01
04
04
01
02
01
02
fd
fd
fc
02
fe
03
01
ff
fc
fc
ff
fd
ff
01
ff
ff
fd
00
01
fc
02
fe
fc
04
02
02
00
fe
02
00
01
ff
02
fe
ff
01
02
fd
fc
ff
fe
02
ff
ff
fc
00
01
fd
02
ff
ff
00
03
00
ff
00
fd
fd
ff
fe
fe
00
03
01
fd
01
02
03
fc
03
fd
01
fe
01
01
fd
01
02
02
fc
00
fb
ff
ff
03
fd
fe
fc
02
ff
fd
fd
fe
01
01
fe
ff
fe
01
fe
fc
03
03
01
fd
02
ff
00
fc
01
fd
02
fb
01
03
fd
fe
01
00
02
02
03
fe
fc
00
fd
fd
fa
fd
03
fd
01
01
00
01
00
ff
03
fe
fe
fe
01
fd
ff
00
fc
fa
03
fc
ff
01
02
ff
fc
05
01
02
fa
fd
fe
00
fb
fe
00
00
fe
ff
ff
00
02
ff
fe
fd
01
02
ff
01
fd
ff
fe
03
ff
fc
fe
01
fe
fc
fb
fe
01
fd
ff
fc
fd
fe
fd
02
02
00
fe
fb
fc
fe
fd
fc
03
fe
fb
01
fd
00
ff
fd
00
00
fc
02
fd
01
fb
ff
fd
05
fd
ff
01
fc
fe
02
fd
ff
fd
ff
00
02
fe
00
00
fe
01
02
fd
ff
fe
fc
fd
02
fb
01
fc
02
00
01
fe
fd
ff
fd
ff
01
fb
02
ff
00
ff
03
00
fe
01
ff
ff
fd
fc
00
03
02
00
ff
01
00
fc
ff
00
fd
fc
01
03
fb
fa
fc
01
03
02
03
01
fc
ff
02
00
fb
00
01
fe
fb
03
fd
fd
00
fe
fc
00
fd
03
03
ff
00
fc
00
fd
03
03
fb
01
00
02
fc
03
fe
02
fc
00
02
fd
fd
03
01
fc
03
fd
fd
01
00
fd
fe
04
00
fc
02
03
fd
02
03
fd
00
ff
04
03
00
00
04
00
fc
04
fe
fe
02
04
fc
fe
01
00
00
fc
ff
01
fe
04
01
ff
00
00
fc
fe
ff
fd
03
fd
04
ff
fd
02
ff
01
ff
03
03
ff
ff
ff
02
ff
fc
fe
fb
fe
ff
fe
01
00
ff
ff
01
04
04
00
00
ff
fe
02
fd
02
03
00
00
ff
00
fc
01
fd
fe
02
fd
00
04
fe
fe
01
03
fd
03
ff
02
fc
fb
00
03
00
00
00
01
fc
ff
ff
ff
04
02
01
fc
02
00
fb
fd
01
fc
02
00
02
00
02
fc
00
02
01
02
02
00
00
03
02
fe
ff
01
01
fd
00
01
ff
02
fc
ff
00
fd
02
ff
00
03
02
01
03
fd
00
ff
ff
02
fd
01
fc
04
ff
00
ff
fc
fd
02
ff
01
ff
02
02
fe
00
01
fe
fc
fb
fe
02
ff
00
fe
02
00
ff
fc
ff
fc
fc
00
fe
fd
01
fe
01
00
fe
fe
fb
ff
01
00
f9
fd
fe
01
04
fe
fe
ff
fb
02
02
03
ff
01
ff
03
fc
00
01
fd
01
03
02
fe
00
ff
fd
fc
fd
04
01
fa
00
fa
fc
ff
03
00
fd
01
fc
fc
00
fe
fd
02
fe
fe
01
00
00
ff
fd
02
02
01
00
02
fa
02
00
fe
02
fe
01
02
ff
02
01
02
02
fe
fd
ff
00
ff
ff
01
02
fe
00
fd
02
fe
01
fd
03
fe
fe
04
fc
f9
03
01
01
fb
00
ff
fe
00
fd
fd
01
00
fd
00
00
fe
02
04
03
fb
01
00
fc
ff
ff
fe
fc
02
03
ff
fd
fb
fe
ff
fc
fc
00
01
fc
ff
02
fd
03
01
ff
03
02
02
00
00
02
fe
00
03
01
00
fe
fd
fe
02
ff
fc
fd
00
03
02
fe
00
fb
00
02
01
01
00
03
04
01
01
01
fc
ff
ff
fe
01
fd
02
00
00
01
fc
fe
fc
fb
fe
f8
ff
01
fe
fc
00
fc
00
00
00
01
ff
04
02
fd
fd
00
02
02
fc
02
01
fd
01
fc
01
02
fd
ff
fd
ff
00
00
00
02
00
03
01
fe
03
fe
fd
ff
fd
04
fe
fc
fe
00
fc
fe
fc
01
01
fe
01
fd
fe
fd
fe
00
04
03
fc
02
02
fd
01
00
01
ff
fc
02
03
04
02
01
ff
01
fd
fe
03
00
fb
fd
00
00
02
02
fd
03
00
00
ff
ff
fe
00
01
fc
fc
00
02
ff
01
01
00
04
ff
03
03
01
04
fb
00
02
fb
ff
03
ff
ff
fd
fd
00
00
02
01
ff
ff
fd
01
fe
01
01
ff
fe
fb
fd
01
03
02
fc
01
fd
fc
fe
01
02
ff
fe
00
03
ff
fd
01
fe
03
fe
03
01
03
fd
fe
fc
02
fd
ff
ff
ff
fc
fe
01
fc
01
fb
04
fe
03
fe
ff
01
00
ff
00
fc
01
ff
03
fe
fe
02
fe
fb
fd
02
01
ff
02
02
fc
ff
fd
fc
fc
03
ff
fc
fe
fd
03
02
fb
04
fd
00
fd
03
fe
02
02
ff
ff
fb
fe
fe
fe
fc
fe
ff
00
fd
fd
01
fc
fc
02
fe
fb
fe
fc
00
03
00
02
ff
03
00
03
fc
fe
ff
fc
fe
fd
01
fe
fe
00
fe
02
fc
00
01
fa
00
01
03
fe
00
00
ff
03
fe
02
00
ff
04
fb
fc
02
01
00
fd
03
fd
fc
00
01
fe
fe
01
03
fe
fd
00
fb
fe
00
ff
01
02
fd
01
03
fd
01
00
ff
ff
03
02
ff
01
01
fd
01
00
00
ff
04
01
00
fa
fd
fb
03
fc
00
fd
01
01
fc
fe
01
fd
ff
fe
ff
04
02
02
fc
fc
00
fe
01
fc
ff
fc
fb
fe
fd
fe
01
fe
01
ff
fe
ff
01
02
fe
00
00
fc
03
ff
03
01
fe
01
ff
fc
fe
ff
03
fd
fd
ff
fd
ff
ff
fd
ff
02
fb
fa
01
03
fd
fc
fd
fe
02
fe
04
fd
01
fe
fe
02
03
fc
03
fe
fd
01
ff
00
fe
00
03
01
fd
02
02
00
fa
01
02
02
fc
fe
ff
ff
00
fe
01
fd
00
fc
00
01
fd
fd
00
04
02
fd
fd
01
fe
00
03
00
03
fd
fc
01
02
03
01
01
00
fc
02
04
04
fc
03
ff
fc
fc
fd
01
fc
fc
02
fe
fe
fd
fe
fe
03
02
01
01
fd
03
fe
00
ff
03
ff
03
fe
00
01
fc
00
03
01
fd
02
03
fe
fd
ff
fc
fe
00
00
fd
01
00
fc
02
03
ff
fe
fd
fe
ff
01
01
fb
02
fd
03
04
02
ff
fe
03
ff
fc
03
00
04
fd
fd
fe
01
fe
02
fe
02
fd
02
ff
ff
fe
fc
ff
ff
fe
fd
ff
fd
ff
fc
fc
01
ff
fc
00
02
01
ff
03
01
ff
01
02
fc
fc
00
fd
03
fd
01
fc
02
04
01
04
01
02
03
fc
01
01
03
fc
fc
fd
02
02
fc
fc
ff
ff
02
fb
01
fc
00
01
00
ff
fc
fb
02
fe
ff
04
02
fc
fd
fc
fd
03
ff
00
02
03
00
00
fe
fb
fc
ff
ff
fd
01
fe
00
01
fd
ff
fd
fe
fc
01
01
02
fd
fe
fb
fd
fc
03
01
ff
04
02
02
fc
00
ff
ff
fc
04
fc
fd
02
03
fe
01
00
04
fd
fb
00
fc
01
00
ff
03
03
fc
02
fe
fe
ff
01
fc
01
fc
00
ff
fd
fc
ff
fe
01
03
fe
fd
00
fb
ff
03
fe
fd
00
03
00
01
ff
fc
ff
fe
fd
ff
f9
fd
01
fe
01
02
01
01
01
ff
fe
fb
fc
ff
03
ff
fd
00
ff
fc
fe
fe
00
01
fd
fc
02
02
00
fc
01
fd
01
fc
00
fd
03
fe
00
00
fc
fe
fc
01
fc
03
01
fc
fd
01
01
04
fe
fd
fd
02
fd
03
00
00
ff
03
02
03
04
fd
04
01
01
00
ff
04
02
00
fd
fc
00
03
ff
00
fd
ff
fd
01
01
fc
02
fe
00
fc
01
ff
ff
04
fe
02
04
fc
fe
02
fc
fd
ff
02
fc
02
ff
01
fc
fe
00
02
03
fc
01
01
02
fd
fd
fe
00
03
fe
fe
00
00
03
02
02
ff
fc
00
02
01
00
fc
02
01
02
02
fe
fe
03
fc
01
ff
00
ff
01
01
02
01
fe
fb
04
01
01
ff
00
02
fa
fb
fe
00
fc
fc
ff
fd
fe
02
fd
fd
01
fe
fd
03
ff
ff
fe
fd
02
01
fc
01
fe
ff
04
ff
fc
01
02
fc
ff
fe
fe
00
03
fc
00
03
ff
03
fc
fe
00
fe
ff
ff
fc
01
fd
fd
02
fd
01
00
fc
ff
00
fd
fd
02
04
fc
03
fb
03
fd
00
fe
01
04
fc
03
03
02
fd
fe
fc
01
fe
02
03
ff
ff
fb
fd
01
fd
fc
fc
fc
00
02
fb
02
fe
fd
00
fd
02
02
fd
fd
02
03
00
fc
fe
02
03
fd
02
02
ff
fe
fc
fd
ff
fd
ff
02
ff
00
01
04
fe
02
02
01
02
fe
fd
fd
fd
03
01
00
04
02
fd
ff
02
02
fc
02
03
fe
01
03
02
fc
03
00
02
02
fe
01
01
fe
02
02
fd
04
02
fc
00
01
fe
01
ff
ff
01
fe
fe
00
ff
01
02
03
fe
03
03
00
fe
03
ff
01
fe
ff
fe
01
04
01
00
00
02
ff
fe
fd
02
02
01
fe
fb
ff
02
03
fc
02
00
fd
00
00
fc
01
fc
ff
00
02
fd
fe
02
01
01
fd
ff
04
02
03
ff
04
01
fd
02
ff
00
fe
ff
03
02
ff
ff
00
04
01
02
03
ff
fc
01
00
01
fd
ff
00
fc
fe
01
03
02
04
f9
03
fd
01
04
00
02
fd
01
00
04
fd
00
ff
02
00
03
fd
fb
fc
03
03
04
ff
fb
00
fe
fd
02
fc
ff
fd
00
fb
00
03
fe
00
ff
fe
ff
03
00
01
03
02
fb
03
04
02
00
00
02
02
02
04
02
fc
fd
ff
fe
05
04
fe
01
fd
fd
02
02
00
fe
fe
fc
00
fd
03
01
fe
fb
fd
fc
00
fe
02
ff
fc
fc
ff
fd
01
01
fa
fc
fd
03
fe
03
00
ff
00
02
fc
ff
fd
03
fe
fd
fe
fc
03
02
ff
ff
fd
fd
03
01
05
fc
01
00
fd
fc
00
fd
fd
ff
ff
fc
01
fe
fc
fd
02
02
00
03
fe
fd
01
00
02
00
fd
00
fe
02
fd
fe
01
fd
fd
ff
fe
fc
fc
04
fe
ff
fc
01
01
fe
ff
04
ff
03
fd
fd
00
04
00
03
03
ff
01
fe
fd
01
01
03
02
00
03
fb
02
fc
ff
03
01
03
fd
fd
fe
01
02
03
03
00
01
00
01
fc
00
01
fc
fe
ff
fc
fe
03
03
02
fd
02
fe
fd
03
ff
00
00
02
01
03
03
04
01
fd
ff
fd
fc
fe
fe
02
fc
03
ff
03
03
ff
02
03
01
03
04
fe
fd
00
03
01
01
fd
01
fd
02
fe
02
03
ff
02
01
00
ff
00
ff
fe
02
01
fd
ff
fc
fe
02
03
fd
01
00
ff
fc
00
04
02
01
01
00
fc
03
fe
02
fc
fc
03
fc
fe
03
01
fe
fe
ff
02
01
00
ff
fe
02
ff
fe
00
01
ff
fd
01
02
02
fd
fe
fe
03
fd
fe
ff
01
02
fe
fd
fd
02
01
fd
ff
fd
03
00
ff
fe
ff
fe
fd
fe
02
fd
00
fc
ff
00
fe
04
01
00
01
fc
01
fe
fc
03
01
fd
fb
ff
01
fd
00
fd
fd
01
01
01
fc
fd
02
fe
00
fd
03
fd
02
01
fd
ff
03
03
fd
fe
fe
fc
00
03
00
02
01
03
01
02
01
03
ff
03
fd
ff
02
ff
fc
01
ff
fd
00
02
04
02
03
02
01
fc
00
01
03
fd
04
00
fd
03
02
03
03
03
fe
ff
04
fd
02
03
00
fe
fd
ff
fd
01
03
02
03
ff
ff
fd
fe
fe
03
03
01
fe
00
01
04
00
fe
01
01
01
02
01
ff
01
02
01
02
fd
ff
ff
ff
fc
fc
02
ff
00
02
fe
fc
03
ff
fe
fb
fd
fd
fb
fc
01
02
02
01
fe
fe
03
fe
02
01
ff
00
fc
ff
ff
ff
ff
00
03
00
fd
ff
04
ff
fd
02
fe
01
fe
fe
fe
fc
fa
03
03
fd
fb
fe
fd
00
fc
fe
02
fd
fc
fc
ff
00
fe
fd
fe
03
03
fe
f9
ff
fb
fc
fe
fa
01
01
ff
fd
ff
fd
02
fd
01
fc
fd
00
00
02
00
fc
fb
fd
fe
fb
01
fb
fd
ff
01
04
00
fd
ff
fc
03
fe
01
02
01
02
fe
00
00
ff
03
03
02
ff
fe
03
fd
00
00
01
fe
fe
03
fc
fe
fd
01
02
00
02
fd
01
03
03
03
fe
ff
04
ff
03
fc
02
fe
01
02
00
fe
00
02
01
fd
00
fe
03
01
ff
ff
01
ff
04
fe
ff
01
fd
fd
03
01
fc
02
fd
00
03
01
fe
fc
fd
03
fc
02
04
fc
00
01
fc
ff
fe
ff
fe
fd
fe
02
03
01
fd
01
fc
fb
fd
ff
ff
fd
01
03
00
03
fc
fe
03
fc
03
03
ff
fd
03
02
fd
02
fe
00
03
01
fc
fc
fe
03
fd
fd
fd
fb
02
fb
ff
03
fd
fe
fc
fd
fc
03
00
02
03
fe
fd
01
00
ff
00
00
fe
02
02
00
fe
fe
01
00
04
fd
00
01
03
03
fc
fc
03
ff
04
fc
00
fe
fc
fe
00
00
01
02
fc
01
03
03
ff
01
03
fc
03
03
04
ff
fc
00
00
fc
01
01
00
01
01
01
fd
00
fe
00
fd
00
01
03
fd
fe
fe
fd
00
fc
01
ff
fc
02
fd
00
03
00
fe
01
03
02
ff
01
fc
fc
00
ff
00
fe
fe
fc
01
03
fd
02
01
fc
02
fb
ff
fc
01
02
03
01
01
00
03
fc
fc
02
fe
03
ff
fe
fd
00
fc
00
01
01
ff
fc
00
ff
fc
fe
ff
fd
00
00
fd
00
03
02
fd
fe
fd
fe
03
01
fe
fd
02
01
fc
03
03
ff
fe
ff
fe
03
01
fd
fc
fe
fe
00
ff
fd
fd
00
fc
fe
fc
fd
00
fe
fc
02
fd
01
fd
fd
04
01
fe
fe
fc
ff
ff
02
ff
fd
02
fd
fe
02
00
03
01
03
01
00
ff
ff
03
00
fe
03
fd
fd
00
03
00
fc
03
03
fc
00
00
01
01
03
fd
00
01
00
01
01
fc
03
02
fe
fd
fc
02
fe
fe
04
fd
fe
00
00
01
fe
fb
03
03
fd
fb
00
01
01
fd
fd
00
fe
ff
fc
01
ff
03
00
fe
fc
ff
03
fc
fc
02
03
04
ff
fe
fc
fe
fc
01
fb
01
00
00
02
ff
04
ff
03
fc
00
02
fe
fe
ff
ff
fd
fd
fd
00
01
02
ff
02
00
00
fd
01
fd
01
00
fe
03
fe
fe
03
ff
04
02
fc
ff
fd
01
01
00
fe
01
ff
01
02
fc
fe
ff
fd
fd
fd
fd
00
ff
fb
fc
fe
fc
00
01
ff
02
01
fd
fe
fd
fc
00
00
ff
03
00
03
fc
fb
00
fc
01
fe
fc
fd
01
03
03
01
00
fb
00
fd
fd
fd
03
02
01
fe
03
00
01
fc
02
fd
fd
00
ff
ff
01
02
ff
ff
fe
00
00
02
01
03
fe
fd
fe
03
ff
02
01
03
00
ff
ff
fd
fc
fb
fc
03
03
02
01
02
ff
fd
fe
03
fe
ff
ff
03
fd
02
fd
03
03
03
02
ff
fe
01
fe
ff
fc
fd
00
fe
03
fc
fd
03
fd
fc
00
fd
fe
ff
01
fc
02
fd
09
fd
07
00
0b
e5
12
f0
03
09
f6
11
08
fd
fc
05
fa
eb
06
03
09
f7
09
fe
ef
f9
f6
05
05
07
09
fb
0e
fe
e8
1a
1e
ea
fb
f5
fc
ff
f4
0f
09
05
e7
f6
e5
01
14
1d
1e
f3
06
ef
02
00
ec
f4
d9
fe
01
1c
12
fb
fc
1b
17
f7
f9
06
13
fe
fd
01
18
09
ee
f1
0d
14
14
01
fe
ed
ff
ff
f8
fd
fe
f3
05
eb
e7
fd
14
0e
08
05
13
f9
03
1c
fe
0d
fa
00
16
04
0e
0a
00
0e
07
05
f8
01
fe
f6
05
06
fe
fe
0d
01
ed
04
09
fb
19
05
07
fc
0c
f2
01
17
f1
08
05
fe
f8
09
e9
01
fb
fe
f6
13
ee
df
f3
09
f1
08
07
11
ff
13
1b
fa
1b
19
18
ee
05
f7
0e
05
09
00
2c
f9
05
02
0a
03
14
01
f7
fb
ed
fc
f8
fe
ef
ff
04
fd
eb
fc
0e
ed
03
f7
fd
f2
fa
06
06
f9
1e
ff
18
14
fc
02
fd
fe
02
04
ef
06
08
0b
e9
fd
0a
0d
ff
0b
10
04
0e
00
fe
fb
00
f3
0b
fe
02
0a
0c
09
16
fd
11
f6
0b
f7
f5
19
f5
0f
04
02
f9
03
04
ff
0a
05
04
0e
0f
ff
11
f5
ed
02
01
14
0f
23
fe
06
ff
f7
11
11
fd
fa
fc
09
06
06
f8
fb
0e
00
01
0b
fc
fb
05
ef
ff
01
e9
03
fd
02
09
08
0e
fd
07
fb
08
fa
17
fe
fe
f4
ea
14
f8
ff
f9
11
f8
f7
13
0d
06
11
f7
0a
f9
fd
04
eb
05
16
f7
fb
0d
06
0f
f4
f5
05
0a
f7
0e
d8
e8
08
05
ff
fa
06
fb
f2
17
e8
e6
e3
13
0a
f4
04
f1
00
f7
06
02
11
00
fd
15
09
fb
0d
fc
13
08
de
e4
06
0a
f6
05
fe
02
fb
06
ea
f7
07
09
1f
f2
0a
f0
f4
f5
0b
00
08
0b
04
fa
1d
ed
00
f4
f9
09
f8
e2
f9
f7
f3
1b
01
f0
09
ff
f2
06
f9
07
fc
09
09
0c
03
03
00
f5
e2
fb
01
05
05
0a
f9
fe
0b
fa
00
f3
f2
0a
f5
f8
ec
05
02
f7
08
0b
f4
fa
07
01
07
f7
ff
1b
fc
fd
04
03
f4
ef
02
0b
08
01
11
02
10
0d
ef
0c
f6
11
f1
ec
f1
fa
05
02
fe
ed
f4
ff
ff
00
14
f9
f3
01
14
ff
02
07
00
08
08
12
02
02
0d
09
e8
ff
ee
02
fa
f5
f9
04
fe
02
03
18
fb
04
08
0b
13
0c
f9
fb
09
01
18
ff
03
13
0a
16
0b
ef
16
0f
f7
f2
f3
ef
f4
0e
fc
f8
05
0d
05
f1
06
0c
04
0b
02
00
e6
f4
e8
fe
f7
fa
16
0e
0c
f7
08
fe
00
f6
14
0b
05
ff
00
f4
fe
ee
18
05
ef
13
14
05
13
16
13
06
ed
02
00
fa
0e
f7
10
09
12
fa
f3
01
f6
0c
fb
0e
09
fc
0e
fe
f3
f3
0b
ea
fe
ed
10
17
05
f3
fe
02
fd
04
05
04
ea
0f
ff
16
10
fc
ff
04
08
20
fc
f4
f3
08
08
03
f1
f5
22
11
f5
0d
00
06
f2
0f
08
00
f5
1b
0d
08
0f
f9
03
02
0b
04
fc
0a
03
01
06
08
22
08
18
06
f5
01
04
15
00
17
ff
18
0a
0f
ff
14
fb
0f
09
12
1a
0d
14
02
fc
0c
fd
fb
0e
03
03
11
16
08
17
07
fa
04
12
19
10
10
fb
0b
fe
05
fb
fb
fe
0c
0c
23
15
12
0f
14
fd
11
11
05
0c
f4
f8
1b
02
09
07
1c
06
0e
07
22
0b
0a
f3
04
00
01
11
ee
02
fe
06
09
11
0d
02
01
01
02
f8
0b
f1
eb
1c
01
05
03
0f
18
00
0b
fe
15
05
f8
f8
06
14
e8
06
e9
08
fc
0d
fb
0d
05
00
03
06
0a
0b
fa
f5
f0
f5
0c
f8
ed
0a
07
fc
0d
f4
02
11
03
fb
e2
f7
f8
ea
f3
13
fa
fe
eb
07
04
fb
fb
f2
05
fa
f9
ee
ea
ff
e8
f7
00
f2
ff
0b
03
f3
04
e8
ef
fa
11
07
f1
0b
09
f2
0d
01
07
15
fe
0d
05
f7
0f
11
06
09
13
20
f1
fd
13
fe
0d
03
17
f9
07
00
04
07
00
06
fd
04
02
0f
fe
f6
ed
0a
0b
00
14
fd
f8
1b
fe
0d
12
ef
f3
fb
fc
f0
01
fc
fe
0b
fb
e9
06
f8
fd
ed
f6
ff
f8
00
05
01
f3
00
f8
e8
04
07
08
fa
f2
03
10
fa
05
f5
f9
e9
fe
fe
eb
ec
0b
05
0a
14
07
fa
07
11
10
ee
01
f2
f6
12
01
06
f6
0e
07
0a
f7
0a
02
16
09
e3
10
fb
0f
f9
00
ef
01
ef
fd
ea
fe
17
fe
17
02
ef
f0
fb
05
f4
fd
f4
04
0f
06
0a
0a
03
fd
18
ff
fb
09
0e
fa
fc
fc
ea
f4
f1
eb
12
f9
f1
ff
07
ff
0b
0a
01
ff
f1
f1
12
fb
06
fd
f2
f4
f7
fe
f9
00
ed
01
07
03
ee
f3
00
fe
fb
fe
ef
09
0c
fb
09
06
03
f5
08
15
0e
01
0a
0a
05
0a
fd
fe
12
0e
f1
f9
01
03
f4
05
f9
03
09
0f
f6
00
ed
fc
f6
21
f5
0e
f4
fb
f2
01
20
fd
01
0b
fe
fd
fa
fc
f7
05
00
00
18
04
00
04
fa
05
19
07
ee
14
f5
01
f4
08
f8
03
fd
f3
00
03
19
07
0e
0e
02
06
ea
0a
06
1c
06
05
10
11
04
18
f0
fb
fa
fd
11
08
08
f7
ef
f8
f3
0c
f7
fc
ff
0c
ff
04
03
fa
0d
0e
f8
fe
03
0e
fd
fe
fa
05
10
fb
f6
0a
f5
09
fa
0b
02
05
f5
fd
12
ff
fe
01
14
07
0b
20
0d
01
01
05
07
0f
f5
03
f5
05
fc
06
08
03
f9
0c
fb
04
13
06
01
03
02
f6
09
01
08
06
09
01
0a
05
00
0a
fc
08
03
f1
0b
f2
f9
05
fa
f9
fd
d7
08
08
f3
08
08
00
08
e9
fc
ef
ed
fc
05
0b
10
15
f9
ef
fb
f1
fe
fc
fc
0e
f5
fa
e7
fe
f0
06
ff
fd
05
eb
ee
f8
fb
06
f3
09
03
01
09
13
f8
0e
e7
0f
00
08
fd
01
fe
01
fd
06
11
0c
fd
e7
f7
0e
f6
0d
f4
09
f8
0b
fd
fe
0d
06
0b
f5
ec
0a
fe
fa
fe
07
ea
f0
1a
fa
06
06
f9
fe
04
02
f4
f3
ee
0b
f4
fe
f9
f5
02
00
e9
fa
04
fa
01
f1
09
05
f6
0d
02
10
fa
fd
1d
01
05
ff
03
0c
f3
06
e7
f9
e9
fc
fb
0a
ec
07
fa
f9
f1
01
f4
ff
04
ed
06
05
f7
04
00
0f
07
fe
0e
eb
fd
05
03
0e
fc
f9
fd
03
e5
00
f1
01
f8
ec
f3
fd
f5
02
fd
0d
04
f4
ff
0e
05
06
fb
03
06
0b
0a
08
03
fb
24
fa
06
12
fe
01
e7
ed
eb
f7
fb
f4
f6
fa
ed
f2
0d
02
f3
00
f4
f7
03
0b
e2
0b
13
ef
02
f2
09
fd
fd
02
fc
f2
f4
00
fa
02
fa
fb
03
fa
ff
03
fc
00
f5
ef
0f
0c
e0
ef
f1
07
e3
09
0d
13
14
f4
0c
12
fc
f7
ec
f3
f2
f9
fe
09
e9
0e
ff
fa
fe
0b
ef
0c
f8
11
00
0b
ed
ff
ea
0b
fa
09
0d
f1
1a
f4
08
06
f5
fe
fe
0d
ee
08
14
f4
03
03
05
f6
05
0a
08
f7
e7
05
fd
f3
f9
f9
f0
f9
ee
f1
0d
fe
12
03
0e
07
f7
f6
0b
07
03
0f
1f
06
09
10
00
10
fa
f9
0a
14
02
ff
fd
fb
fc
fa
f6
03
02
02
0f
1e
04
06
0c
fe
fb
0a
fb
07
11
04
00
0e
09
f6
f1
0e
fd
01
00
00
fa
ff
05
f7
ff
10
ff
12
f4
ed
14
02
02
09
02
18
15
fe
f9
fe
04
0a
f0
f2
fe
f8
f5
0e
05
ff
01
04
fc
11
ef
fb
09
f3
01
f4
eb
02
fa
01
e9
02
05
f5
fa
fa
ef
f3
1b
03
fe
f1
eb
fa
00
fb
00
04
02
f4
1e
00
0b
fa
ee
01
13
fe
04
fe
0c
0e
09
fc
f6
00
0e
fd
f9
06
00
0d
fd
06
05
fd
05
ef
05
f7
fb
fd
ec
f4
04
fa
f6
f3
ff
00
ff
f5
e9
f9
02
fb
fe
0f
03
f8
f8
07
03
f6
f0
02
fd
12
00
08
f0
f9
01
fe
ff
e6
f7
f3
0a
00
fc
03
ed
fc
04
f4
ff
fd
fa
fc
03
ff
f4
09
ea
f6
f6
f0
f1
08
f9
00
0a
f2
07
f7
01
0c
f6
f1
0a
0e
0f
f9
dd
ea
fd
f9
f9
fb
07
01
ee
f0
f4
0d
10
fb
e8
0b
ef
01
fb
ee
fa
0b
da
04
06
15
fe
fc
07
fc
fc
f1
0c
fe
fc
fc
03
f6
f4
0a
0a
06
fc
f7
02
fb
fb
0a
f3
05
02
ef
fc
f8
f9
07
0b
f1
ff
02
ee
02
0d
03
f0
09
00
fb
0b
0a
f6
f3
0a
fc
02
09
f7
f6
f2
fb
e4
ee
10
00
0e
13
df
02
02
f9
fc
fb
e2
fa
f5
00
0f
f5
20
f2
f8
f9
0b
0f
0c
ed
f8
f5
f1
ee
ed
07
da
fd
13
f6
ed
0e
ec
06
03
f9
03
f5
ef
e9
f8
11
f9
fa
01
f7
0d
ff
10
05
00
f4
eb
f9
ff
fa
fa
ff
dc
09
03
f5
db
fd
ee
fd
fd
e8
f9
0d
0a
0b
e1
e2
f5
ef
fd
ed
fa
fa
0c
fc
e2
f8
f8
17
fd
fa
08
0d
f7
14
0e
00
03
08
f0
fd
f1
fb
03
09
fa
04
f0
e7
11
e6
16
fa
13
04
0a
02
f1
04
00
0a
fe
f8
11
14
0c
08
fb
f9
f5
04
13
fb
fd
09
14
ff
fa
07
e3
f3
0f
04
02
04
f7
11
17
0b
f4
f9
0a
03
12
0d
0b
0f
01
0f
f6
09
f4
01
0a
f6
0b
fc
fc
0d
06
f4
f5
ff
f6
fb
f6
f9
13
fe
0d
06
04
09
f2
04
16
09
fd
0c
f8
03
f8
f6
fe
f3
16
ff
1e
1c
06
01
02
eb
04
ff
e3
f9
ee
f9
ff
0b
06
ea
03
f4
06
f9
16
0c
03
01
00
fb
f7
09
ed
ee
f8
ee
1d
03
fe
01
ed
e9
0f
01
03
01
fc
01
fd
03
f6
e5
fc
07
ee
0a
08
00
03
f1
01
01
01
f2
fb
f9
fb
ef
0c
0f
04
f4
fd
f9
0e
0c
01
f0
fa
fb
08
0c
f6
0a
08
f5
f8
f9
0b
03
fa
07
fb
0c
02
f5
f9
f6
e7
e6
00
01
fe
ec
ef
0a
0a
e7
18
03
fb
f5
f8
fa
00
f6
f1
fd
ed
fa
fe
06
f2
fd
f9
f7
fc
f3
f4
ed
e1
0a
f6
fc
fe
f3
f6
fd
06
06
06
ef
ff
f7
0d
fb
04
df
01
09
f0
0d
0a
04
ef
09
ec
01
ff
ef
0a
f9
fc
01
07
fe
06
fe
fb
f8
03
04
02
f4
03
06
ed
09
fe
f7
00
f9
04
f6
00
09
04
fc
ef
00
10
f4
f5
0b
ed
f5
ec
fb
f9
fb
f6
f7
01
f1
eb
fc
10
fe
f2
03
f4
06
14
f3
fc
ee
fd
ef
11
f2
eb
fc
0d
f6
eb
02
f8
f9
09
12
03
04
12
06
00
02
24
09
fa
f1
fc
02
ff
01
1b
0c
f9
e4
06
f2
0b
ed
fc
f5
09
f3
ff
01
fc
05
02
ec
0e
0f
fd
04
f1
ff
01
0a
12
ed
1b
f2
0e
fd
06
01
eb
f0
04
10
e8
09
ea
16
04
e7
f5
f0
ff
15
f9
f9
0f
ff
09
f9
ed
01
0c
07
f7
e4
12
ef
fb
ef
f1
2b
f2
f1
f5
0f
04
0d
09
f8
10
ee
08
e9
02
f6
ef
0d
fd
0b
0f
fc
dd
fa
fe
01
f9
01
fc
fe
0c
fc
f8
02
f9
0c
03
13
0b
11
08
fa
08
fe
f7
f2
0a
09
fb
f5
e4
f4
f8
f4
ff
08
f7
01
db
fa
0f
06
0c
e4
f1
f4
e3
03
03
0b
fe
0a
f6
f9
07
f7
ea
e0
fe
f6
ff
f5
ee
02
0c
fc
f9
f9
0c
fc
f7
fc
f6
06
0e
db
02
f8
ec
f3
ed
16
0f
ea
0a
ee
03
02
fc
02
09
07
fe
f5
f3
0d
1b
0a
00
e6
f3
03
fd
fe
e3
fe
06
f2
eb
f0
fc
fa
11
03
f2
fa
03
0e
fc
09
0a
fb
02
06
0b
07
f4
fa
07
06
14
fa
f3
f0
fc
0d
f8
f8
03
eb
f0
f4
ed
fc
f3
ff
04
f9
fe
fd
00
0c
f0
eb
eb
04
05
00
e9
f4
f4
0d
f8
e8
e6
01
0a
fb
ed
0a
f5
f7
ee
05
10
0b
09
f1
fd
fa
01
fc
07
fa
fd
05
f1
08
fa
18
f2
f5
f6
18
05
0f
fa
11
f5
f9
f0
00
f5
f6
07
fe
11
13
0a
fe
eb
ec
f6
05
fd
ef
f1
f1
f7
02
f5
f1
ff
f4
dc
08
0b
07
09
05
e8
01
00
03
f8
f0
fd
1a
14
fd
f5
08
02
eb
13
f7
ff
19
f8
05
e8
09
ee
ea
f8
ff
fa
0a
ef
01
f6
04
f4
ea
ec
f3
04
0e
02
fb
08
09
fd
fb
07
fa
00
03
0a
08
f2
05
06
04
f0
06
fe
06
ee
f0
f2
fe
f7
00
ee
ff
0e
fe
00
04
00
08
f7
06
08
03
06
06
fe
f7
09
f2
f4
06
fd
04
fc
09
04
f5
0a
f5
f0
05
14
f8
f8
f8
17
05
03
fb
13
0b
f2
f5
f9
01
f7
05
ff
f9
06
f8
04
f9
f8
06
01
fa
ff
11
f9
fd
fb
08
f0
04
ff
03
f6
e5
03
f7
12
f9
f7
f0
02
0e
08
00
ed
f2
0a
fa
f8
07
0d
f2
ef
ed
ff
f6
0f
fe
e8
f9
fd
06
0a
f3
fc
f7
09
de
e7
09
02
ed
07
03
e9
01
09
f4
14
fc
f3
03
08
05
08
f0
0e
fc
08
01
f1
00
1a
10
01
06
0a
e9
19
fc
ff
21
e8
eb
04
0d
f9
26
07
f7
02
fc
0e
03
ff
03
ff
00
e8
07
0d
ee
ff
0c
07
f8
f5
ff
08
fc
04
de
ed
f8
ef
01
06
0b
09
07
f8
07
ed
f3
12
fd
05
fb
ff
02
f9
ee
12
06
05
fd
16
08
e9
ff
0f
01
03
f4
03
0f
f7
00
0b
15
f7
15
03
f7
f8
05
06
f4
06
03
fd
12
01
f8
0c
f0
0c
0c
00
fb
db
04
04
00
09
04
0e
f1
01
07
0f
18
00
f6
f9
f8
f7
06
f2
f7
0a
ef
04
f8
f7
ff
fb
ec
0c
05
07
f6
ef
f0
06
e7
06
e0
07
fe
08
0a
ff
ff
00
01
fa
05
f2
13
f1
fd
fa
f7
fe
00
08
0b
fd
07
fb
f5
f3
ff
09
fc
f9
07
fd
05
f6
03
fe
fe
fe
f5
fa
e8
00
0c
02
fb
fb
f9
f3
fc
fa
00
fa
f6
05
15
fb
06
f2
fb
e2
f3
ec
fd
03
0b
04
0c
18
1d
0f
fd
ed
fd
02
f3
f4
06
fb
f8
f5
f6
f0
fa
f4
fa
eb
fe
02
f9
ee
f2
ee
f8
00
ff
f6
ed
fe
ec
12
06
e9
fe
ee
04
f7
0d
eb
04
f5
02
e4
13
f0
e9
f1
0b
00
f3
f3
fc
13
f4
f5
fa
f8
ef
06
04
f8
fa
11
0f
e9
1c
ff
07
fe
0d
fd
02
eb
0a
06
06
00
f6
f4
f5
07
09
ff
ef
f3
07
03
07
13
f2
fc
fe
ec
0b
0f
10
fc
ed
0c
14
0a
0c
0b
16
df
05
f1
02
15
16
17
e9
ff
0d
06
fc
f9
ef
e9
ec
07
02
03
fb
10
f1
0d
0a
0a
05
f2
f9
ea
f9
09
ed
f7
fc
f2
01
fb
0c
01
11
f5
eb
f0
15
0d
03
f5
ee
0b
f6
01
f1
09
0c
eb
01
0d
00
03
00
06
14
06
0c
08
00
ff
04
ec
f2
fa
fa
04
f7
e9
e4
17
12
09
0a
fb
fa
05
ff
f1
0f
e5
e8
e3
19
e7
16
f2
09
0d
f6
12
09
fd
11
05
04
02
0e
0e
00
f0
0a
03
0d
f4
ff
17
ff
08
e6
fb
17
f7
0c
18
ff
fc
0d
fc
0d
fd
03
0b
fd
fb
0c
ff
07
00
fe
13
fa
fc
fc
f5
f7
0e
fe
01
fd
fa
fa
ea
fc
05
08
0b
05
fa
1e
f0
f9
f9
06
01
fd
fb
06
13
10
01
03
f2
01
16
fb
dd
fc
03
01
08
03
f7
03
fb
06
08
07
0f
03
f6
12
eb
f5
f2
ee
f3
f8
d1
f3
f5
02
f9
e4
0a
0f
06
08
04
01
f6
0d
f2
02
03
fc
f5
0d
18
08
0b
06
fe
f3
ff
eb
f5
fe
00
02
06
f0
f8
0c
f5
08
07
1d
0a
ed
f3
f1
ff
02
ed
fd
fd
00
fa
f4
05
00
fe
fc
f4
f0
0f
fd
f2
14
f2
0f
0d
08
f9
0f
12
08
0b
11
fb
f9
f8
08
0a
f7
0e
fc
ff
0c
fa
00
06
0e
fe
f3
f5
f5
03
02
fd
ff
01
fe
f1
00
f1
10
0c
f9
16
f9
f3
fe
01
0c
ec
07
f9
fe
01
fb
fb
13
02
0f
1e
f9
f4
f9
04
fb
01
fd
fc
fb
f6
f6
04
fc
0b
e8
f6
03
05
01
f0
0b
ec
ff
05
00
f2
fb
03
0e
ff
0d
04
f6
f3
f1
03
08
07
f3
f1
06
ea
06
fb
09
0b
0c
f2
15
f2
16
f2
02
f6
ed
1a
f1
ff
f8
0c
04
07
1e
07
0d
f9
01
f9
f9
fe
fd
fe
fc
f9
03
01
10
f9
de
fb
09
f8
ff
ea
0c
0b
0a
06
f3
01
f9
f3
fa
0b
08
e9
ee
e9
03
08
00
05
0a
e7
0a
fa
f8
f4
03
fc
06
fa
f2
f9
f6
f7
f5
f9
ff
fd
04
f3
00
00
06
01
0d
17
08
0f
fd
ff
ff
0c
03
ec
ed
ef
fa
01
0e
00
01
09
06
f5
0d
e7
06
ef
04
0d
f8
ee
f8
10
0c
f2
fb
0e
04
fb
20
ee
06
12
01
f2
f4
f1
f6
0c
04
fc
0b
ea
0a
fe
fa
18
f9
e8
0e
09
fe
02
f9
e3
13
fb
05
f1
14
12
07
08
fb
0f
f0
02
04
e8
f2
04
0b
0d
fb
10
f8
f8
f6
0b
ff
eb
05
f9
f6
ff
f5
13
13
00
f9
0c
06
f9
f2
f9
dd
0b
07
0d
fb
fb
01
fc
f7
00
fd
09
f4
ff
13
0d
06
0d
fe
16
f4
02
00
fc
02
f2
fa
09
01
ef
07
f5
f0
fd
f8
fd
f9
fc
ff
04
ff
fe
fc
06
00
fc
f5
01
f9
1a
14
e6
fc
04
ea
fa
ff
f9
fc
07
16
01
f1
fc
03
ff
f9
09
05
f2
0e
04
fc
f6
0b
01
fa
f8
f6
01
ed
eb
fb
fa
03
06
06
ff
f6
07
02
01
06
ff
f9
f9
03
01
fd
06
08
f8
09
0a
fc
ea
07
10
02
03
fa
00
f1
11
fd
fa
f5
01
04
01
f6
fa
11
f7
ff
09
f5
f5
16
f9
04
03
0e
fd
0b
08
f6
09
06
0f
02
fc
00
ef
0f
ea
01
f4
05
fe
f1
0c
13
ec
f5
fa
05
f8
03
0a
01
08
f7
f9
f6
f3
ff
00
f7
04
f7
0a
06
ff
09
de
0a
03
13
04
fe
07
fa
01
1e
00
00
e2
fa
e9
01
10
07
f9
fd
06
fd
fe
f9
04
ff
03
e9
fc
15
f0
0c
00
04
06
fc
03
05
0a
fb
07
1d
12
17
f6
0d
f8
05
fb
15
f2
09
08
0f
ef
0e
07
05
02
0a
ee
06
f4
01
fe
ed
fc
ef
0e
eb
ff
07
0a
f3
0c
fc
04
05
fd
01
f4
fb
01
f6
fa
f7
ef
fa
03
f9
f3
f6
ff
00
08
f9
f3
f0
f3
f9
02
f2
04
ea
f3
02
03
11
f2
fe
f9
0c
03
07
fc
0b
dd
f1
f3
ff
f3
ff
f8
ec
f5
fb
03
02
07
fe
01
fc
e9
e4
fe
fd
f9
04
17
05
ec
fa
03
f8
ff
0b
02
fe
fa
00
ea
f7
04
10
fb
0e
01
fc
fa
02
f7
e7
07
f5
f3
f6
f8
fc
06
05
02
06
f8
09
fe
f8
f3
18
11
fc
05
02
ee
f4
06
0b
f6
e2
16
04
fc
fe
09
f7
0c
06
f5
fb
f3
fd
ec
0a
04
ff
0b
f8
04
0e
08
fc
11
f6
f9
00
00
01
0e
e7
0b
01
0f
f7
0c
fb
00
fe
0c
01
f6
f0
fa
09
05
fa
06
f6
05
0b
f5
10
04
eb
06
0e
f7
12
00
01
13
04
0b
fd
0f
1c
fe
03
e9
fa
09
07
05
fd
0c
fc
00
00
0f
f2
17
07
f5
04
fc
02
00
01
03
11
f7
04
0c
00
fa
f7
0a
ff
07
06
e7
fc
f8
08
f6
07
05
02
07
fb
14
00
00
0c
f9
0b
f2
f5
0a
01
f5
02
00
15
0c
00
f7
fa
13
f4
03
07
f7
ef
f2
06
e5
06
04
ff
f5
fa
04
f8
02
08
fd
ea
0f
0b
fe
0a
ea
02
f4
06
05
ff
f3
f4
03
fb
02
f0
11
08
10
fe
f6
f4
01
00
01
e6
0b
08
07
fd
15
ff
06
09
fb
f6
f6
10
0d
fd
00
13
fe
11
0a
03
ff
08
e6
07
fe
09
05
03
f5
0a
fd
0f
eb
f8
05
fa
0b
05
02
0a
09
00
0d
ed
00
01
08
f0
06
f6
11
fa
06
06
ff
f6
e5
fc
fd
05
fe
fb
ff
03
fa
00
03
fd
f7
0b
f4
f9
0a
fe
fe
f4
ea
f0
07
04
07
00
ff
06
fe
20
02
f6
03
fc
13
fd
01
03
11
fd
13
19
f3
f4
ee
0a
f6
fc
f2
05
ff
ff
f5
05
16
08
0c
f4
e8
0e
00
ff
00
30
f5
05
04
04
0a
02
01
0c
02
02
ff
07
f1
01
00
04
02
06
f9
00
fe
05
01
01
0f
09
e8
09
f9
fc
f3
f4
e4
e6
f9
f2
05
ee
08
13
0c
ff
fd
f9
ec
f8
ef
08
00
fa
06
f8
ef
f0
04
f9
09
ec
04
f2
f7
0f
ea
fd
ff
f2
08
e0
02
09
fc
0e
14
09
e5
00
04
01
05
07
fb
0d
16
fc
0e
ee
f4
0c
05
04
ef
1d
ff
0c
f5
0a
14
ea
02
ff
fb
05
f8
07
06
03
09
fb
f5
11
04
09
ff
f9
f9
f3
f3
fc
fd
ff
05
ea
0f
0b
03
fd
f2
07
f9
09
f9
01
f9
f0
f7
0a
f7
0a
08
fa
fe
08
00
ff
04
05
12
e7
ff
f9
12
f6
fd
01
03
f6
04
01
04
f4
05
07
f7
fa
f8
fb
0a
de
f8
f2
01
05
e5
01
ea
03
08
ff
f6
f4
f3
05
04
17
04
ea
02
f3
fe
fa
fb
02
04
0a
03
f3
00
0f
10
01
03
f9
16
05
08
ef
f2
f4
f8
fd
03
03
f8
00
fd
f6
01
12
09
f4
f9
04
2a
19
f5
fc
06
05
07
08
07
fe
0b
09
01
e6
09
f5
08
01
0a
03
00
00
03
03
13
f2
03
f5
f7
01
ff
0c
e4
fb
f2
06
ff
01
07
fc
02
16
f9
0b
04
fa
f0
fc
05
14
09
0c
f6
f0
02
fe
ff
f6
08
fa
11
fd
03
f7
e3
0a
f8
fd
fb
f9
0a
ff
fe
0c
03
04
f4
e5
0f
06
ff
0b
fd
10
f3
00
00
fc
0d
fc
fd
02
f9
06
07
f5
ee
0b
f6
0c
08
fc
ea
06
fd
fc
02
0b
09
fd
f8
06
fc
e7
07
fa
fc
fa
fe
f6
02
15
09
ff
08
19
05
f6
fd
03
fd
08
fc
fd
ef
ff
fb
02
f6
00
fe
01
fe
08
0b
f2
09
0d
1c
f8
00
ff
06
0e
14
09
06
01
03
10
02
ff
11
f7
05
fd
05
00
06
09
fa
f6
01
09
f2
07
f8
0c
f8
07
02
19
f6
01
fc
05
f9
f9
08
08
fe
01
1f
02
fa
fc
12
07
f6
ff
06
04
09
05
f6
0c
05
07
f9
f4
fe
03
fa
00
01
f5
04
03
0a
f8
03
fa
04
0b
ff
00
f1
f4
16
0d
f0
f7
02
06
04
01
01
07
09
0d
07
fa
05
08
f0
fa
f7
01
f9
f7
06
f1
ef
fc
04
00
f6
03
f6
fd
09
f2
02
02
f6
0c
06
06
f9
f5
04
14
f9
15
f8
08
0c
f7
fc
f5
09
fe
00
0d
0f
fc
02
0e
0a
fa
04
f3
f9
09
fb
ff
fd
f8
fd
02
0a
fb
e3
e7
fc
fd
00
02
04
f1
fa
f5
f8
06
fe
ec
10
e9
00
05
15
f5
07
11
05
04
fd
f5
e7
0b
10
fd
1a
0a
01
03
06
ff
ff
06
f6
0a
0b
f9
10
de
14
08
ee
01
0c
04
ec
07
fc
e8
f7
ee
f0
fb
09
08
0d
f7
f2
03
00
07
f5
06
02
02
f2
ff
e4
00
08
01
0a
ef
03
fb
00
07
0c
fd
e8
02
fe
fc
08
04
fd
07
03
03
05
06
fa
ff
f0
03
0e
fb
e9
09
10
f9
07
06
fc
ff
00
02
0a
0a
ed
fd
f4
fb
0a
f7
02
05
04
fb
f7
f8
12
ff
fb
0a
00
0f
02
f7
ee
f5
08
05
fa
01
fa
fa
f2
ff
03
f6
05
f4
f6
0c
f7
f8
04
eb
f4
05
fd
f5
08
08
ec
12
fd
00
fc
04
01
08
f6
11
fe
fd
f6
fb
f8
0f
04
f5
f3
f1
03
0d
fc
05
02
04
08
ee
f5
f8
05
f5
fc
08
04
17
f2
08
0d
f4
fd
02
e8
1c
f8
f3
0b
09
fd
09
03
0f
11
08
0b
f7
ec
17
07
0e
1a
1b
05
fb
fd
e6
02
07
04
08
f6
0f
f7
f7
f8
0b
07
02
0e
04
05
05
01
15
05
10
f0
12
fa
fe
11
11
08
03
02
01
06
ef
f1
ec
0b
f3
06
14
02
00
08
fd
fa
ff
09
13
f8
07
f4
fa
15
fc
03
fc
ff
10
0c
f5
0f
10
fd
0e
05
00
03
f7
02
fc
f2
16
06
09
03
11
f1
12
0a
00
03
fc
09
fa
17
00
f1
03
f8
03
07
04
08
0c
0d
00
03
f2
fd
17
fb
ef
13
f5
01
06
ff
03
f7
f9
fd
17
03
0d
00
07
fc
12
08
12
fb
f2
fe
f7
09
06
14
07
f8
06
04
fc
00
06
fa
0b
fb
06
02
09
f1
ec
ff
0d
03
f8
fd
06
02
ef
10
04
f5
08
f5
fb
f7
f8
f6
0a
ea
17
05
ee
fa
0a
ea
05
e4
f6
0c
15
09
06
f3
09
fc
05
03
fa
fb
06
f9
0a
fc
ee
12
0f
fd
f7
09
05
06
0e
0b
01
04
f9
f2
03
08
fb
00
04
14
f5
f2
f5
0c
fd
08
02
12
03
0f
f3
fe
fd
00
16
00
f3
f9
f4
f2
0e
10
19
03
11
f5
08
12
00
06
07
10
f5
f6
03
07
19
ff
0a
fe
f5
13
ed
f3
0a
04
f8
09
f4
03
0d
ff
08
f7
02
fd
f6
f9
05
08
10
05
f7
0e
de
fd
eb
0a
02
04
06
f1
f9
1c
f0
f0
fd
09
07
ff
0b
fc
f9
ef
0d
ff
05
ff
0b
e9
fe
01
f2
f0
fb
05
ff
f7
fb
0b
0f
ff
15
f4
0d
00
ef
fd
f9
12
0e
08
f2
11
00
f3
ed
fc
0b
03
13
00
07
06
05
fd
ff
ff
0a
00
f3
01
f2
fb
f9
ee
06
f3
f1
fe
f8
fd
05
f8
ef
f2
f7
fd
fa
fd
0f
02
15
03
1b
00
08
07
04
fe
03
f8
07
02
f3
03
0c
0a
10
00
05
f4
03
02
0c
12
00
f8
f8
05
15
01
ff
ff
03
14
0b
e5
06
f5
fc
fe
f7
09
f2
fc
f7
fc
09
01
05
fa
ee
eb
ea
f3
fc
f3
f9
f5
fe
fc
f9
f9
05
10
f6
01
f5
09
05
ff
06
fc
f5
03
fb
05
f7
07
f4
03
03
e7
f9
e2
eb
f0
fc
f3
fb
12
ee
f3
ee
fa
f7
12
f5
fd
f4
fa
01
ff
02
fe
ef
ff
fb
04
f7
fc
ee
f5
04
ee
fa
f0
ed
f6
01
ff
f1
02
f0
f1
f3
fb
ff
07
01
fe
f6
f9
f7
05
fb
f9
f2
f4
fc
0f
fa
ee
0b
08
09
eb
ea
f5
f9
f9
00
f0
e0
f4
ef
04
f8
fb
0c
03
05
ee
04
fe
0a
03
ff
0b
ef
03
f0
01
fc
f8
fe
0b
01
fb
f3
00
ff
fc
01
f5
ec
09
fa
e5
fc
f3
02
0c
fe
f7
0b
ee
0c
f1
f5
f5
f1
f3
00
f4
ff
03
01
15
07
ff
f3
02
ed
fa
03
05
fc
ef
05
0f
f3
fe
f2
0b
f6
05
0f
f6
09
f9
f9
fa
fd
13
05
06
f6
18
fb
25
18
ed
ee
02
09
f1
ff
0a
f7
fd
0a
ed
fd
03
05
01
13
07
1a
15
0f
f2
ef
f7
0f
08
11
f9
0b
f0
fa
18
10
f2
04
05
03
f8
03
06
f9
fb
0a
02
fa
11
fa
fa
1a
11
17
08
12
01
06
f4
02
0e
0f
f9
f5
03
f2
0b
ff
ed
15
0a
19
09
ec
01
eb
1d
fc
0d
f7
e8
12
fb
08
fc
0c
f4
01
f8
ed
03
16
f2
fa
fd
00
fc
ef
05
f8
ff
00
15
fd
f4
04
fc
f1
f0
fd
13
fc
0d
0e
0a
f6
f6
09
f1
08
f9
f9
16
11
fb
00
ec
ef
fb
eb
0e
f8
02
10
0b
14
f0
fb
00
04
f6
0d
03
14
00
07
0b
fa
0c
04
02
05
fa
05
05
1e
fa
09
f7
03
f7
ee
fb
ef
0a
06
00
03
fc
ff
fa
10
00
02
0d
11
01
0e
fd
ff
1c
f6
03
02
0c
ed
07
0f
06
03
f4
04
ea
07
f1
ff
04
0c
09
04
00
11
ef
0f
ea
f5
19
07
01
12
f1
f6
ff
f4
f9
f3
00
04
08
ef
fd
fb
f9
fd
02
fd
03
ef
ff
f1
ff
fb
f4
fd
ff
ff
ee
0a
fe
0d
02
ef
09
02
00
02
fd
03
f5
07
04
0a
0e
fa
fd
00
05
06
05
02
f6
f9
f4
f6
ee
00
ff
06
08
f3
f1
ed
f9
fa
06
fd
0f
f4
07
fb
f3
02
05
f2
09
08
ff
fb
fa
0b
05
04
ff
0a
f9
fe
03
06
0f
04
06
03
f7
fc
0f
00
f8
06
04
04
f5
05
01
01
fc
ea
f6
0d
02
06
17
fb
f8
ed
00
fb
fa
fa
ff
fd
05
ff
fc
09
ff
04
fd
01
00
10
f6
04
fb
0c
ff
05
00
04
02
00
00
02
05
fa
fd
fb
02
e8
fc
f3
fd
06
01
07
f6
06
e7
f9
f7
01
08
03
02
0b
f6
01
01
04
03
f5
11
09
f3
f9
21
0c
fa
ed
0c
08
0c
f9
f3
18
00
04
02
06
0c
fe
13
f0
00
0d
fd
00
06
fc
fe
f6
03
f6
04
07
fc
fe
0c
0d
09
f2
0d
ef
04
07
08
09
00
f2
06
10
04
03
12
fa
01
0e
08
f9
18
03
f6
03
fd
02
01
f0
ee
09
0d
fc
01
fc
02
fd
0a
f6
f4
ee
fa
08
0a
11
ef
ff
f7
fd
f5
0b
02
f1
ff
06
fe
01
fb
fa
01
0a
ee
00
04
f8
ff
eb
fc
15
11
fb
f6
e9
fa
06
f7
f7
07
fa
f4
fd
fc
f7
e8
fa
0b
f3
f9
0b
04
12
f2
03
fd
05
fe
fe
f6
ee
02
09
04
fb
0d
f9
f1
f4
fc
fc
0a
00
0a
11
fd
f7
f6
fb
fa
ff
f7
f9
05
00
ff
04
ea
ff
0b
0d
fb
ec
02
00
fe
01
0c
0f
ee
fc
f5
fd
05
03
00
f9
06
e9
ee
fa
03
fe
ea
f2
04
0d
fe
f9
fa
01
00
17
f8
02
08
06
04
ed
0c
13
fa
fb
02
fa
ff
fd
04
fb
03
fe
17
fe
fd
fb
ff
fc
ff
0b
11
ff
f9
09
ee
0d
fa
08
12
0f
fd
f3
f5
19
00
fc
01
10
11
06
1d
f5
fd
05
04
03
0f
f2
fb
fb
0c
fb
01
09
fa
09
fa
f7
ff
ff
ef
f0
02
f0
f1
03
07
08
f7
07
fc
fe
01
03
03
f8
ee
02
09
06
fe
04
04
02
fc
00
02
fc
f8
f4
08
02
04
ed
fa
f8
e7
f8
04
f9
09
f8
f4
02
f2
03
08
00
08
05
fd
fe
fa
f1
09
ee
00
fa
fc
02
09
05
0b
fe
fc
02
fd
fb
00
09
13
08
f6
10
f6
fd
01
f9
04
fb
eb
04
f6
09
05
ff
fe
fb
06
01
05
04
0a
ff
04
fa
fb
0b
fc
0a
fc
fb
0d
08
19
08
fe
fe
fa
fb
fc
f8
ee
f9
04
fd
fe
ff
03
1a
f4
fb
06
06
ff
ff
f8
f0
00
f2
12
fe
f7
01
f8
fb
fc
03
10
03
0d
02
fc
f1
fc
fb
01
fd
05
fd
f2
01
0b
03
f7
07
04
f3
f4
03
fe
f9
10
01
00
0f
fd
f9
02
14
0e
14
17
09
f2
0a
f6
f5
08
fd
14
11
f6
f9
0a
01
fa
12
00
f5
00
02
02
fc
0e
0b
12
f2
06
fd
11
17
02
10
f2
ff
f6
ff
02
04
f2
02
13
09
ff
10
07
05
fe
02
0b
ff
0a
fa
06
ed
0e
02
0d
fd
ff
06
07
02
e0
0d
fd
0e
01
f9
00
08
fb
f2
08
0c
09
f6
f3
08
fa
08
fa
07
00
fe
10
17
08
ff
fb
fc
fc
0a
01
0e
06
0b
fc
f6
01
f0
10
f0
fa
07
03
11
15
0a
08
10
ea
25
0b
18
0d
00
1b
0a
02
04
18
0e
00
02
02
08
f6
15
13
0e
fb
fd
0e
fe
01
0b
03
05
13
07
f6
0e
fd
03
0f
17
05
ff
17
02
fa
fe
00
17
f8
fe
12
00
12
15
0e
fb
f8
fd
09
fb
04
0a
ff
01
fb
09
05
f9
01
03
09
01
f6
00
10
f9
f7
fc
08
fc
e8
f7
fe
01
fd
15
00
fe
fd
f5
16
08
f6
fe
fd
e8
12
ef
01
fb
fb
f1
05
f4
10
10
07
0a
0d
ec
fa
02
fa
f6
fa
03
0f
0c
0c
09
fb
09
02
0d
0f
0b
f8
fd
fd
f2
f0
eb
f6
08
0d
f4
fb
eb
f0
f1
ff
f8
f4
01
fb
05
f4
f3
f7
f9
fd
fb
0d
f8
f1
02
00
ff
f5
03
00
06
fa
ed
fb
01
fc
fd
04
04
f6
0a
f6
f7
f4
fa
fa
01
11
fc
f7
f2
f5
03
13
fc
04
0a
f9
0a
f6
f1
05
00
02
0a
f9
ff
06
fd
fe
f2
02
f1
f1
fc
f7
fc
09
02
fe
f0
f7
04
09
fd
0f
06
06
f7
01
ec
01
03
fa
f1
ed
0d
00
03
fb
05
0d
0a
fe
09
f7
0e
f7
f5
12
18
fa
f2
fc
f9
09
f9
04
07
fb
03
03
02
04
1c
fd
0a
00
06
fe
06
07
05
06
07
00
fc
03
03
f8
07
0b
06
12
0c
0b
00
08
f8
fa
09
01
fa
14
fc
fa
01
04
0e
13
04
f4
02
03
03
0b
fb
f9
fd
0c
02
f9
0f
f5
03
12
10
0f
03
07
18
f0
f7
ff
07
0d
13
07
15
0b
ff
08
02
05
fd
0c
fa
ff
fc
09
0d
16
fe
02
ea
fd
fd
11
03
00
05
f1
fa
e0
19
03
fc
15
f7
ff
fe
ef
12
01
04
fb
15
f5
ff
08
00
03
eb
06
0e
04
f7
f7
03
e7
f8
ec
09
fd
0f
eb
02
f6
09
f3
06
04
0f
fd
03
06
08
05
f6
01
06
07
03
f1
18
05
fe
ff
03
fd
07
18
15
11
0f
04
f4
f9
ee
1d
08
fd
05
05
0c
08
0c
13
00
04
09
17
14
f4
fd
13
0e
fb
00
0c
f7
f2
f6
01
0a
fc
18
06
04
fc
fb
f9
ff
0b
01
03
02
0b
fe
ff
02
0e
04
09
fd
03
fe
06
02
06
fa
09
fc
fc
f5
0d
0d
01
03
fa
ff
f3
f6
f6
01
05
fd
fc
eb
ef
07
fb
e4
07
f9
0e
f5
f4
f9
ff
ec
02
f3
fb
f9
fb
fd
f5
fa
ef
02
f5
10
02
f2
07
fd
ff
ef
0a
e5
0a
f3
fa
fe
0c
f0
09
f5
fe
f8
f7
09
04
f7
f8
e6
fb
00
e2
03
00
01
fa
ef
fc
03
05
0d
02
f6
f8
f2
17
f7
fe
ea
fd
ff
f3
fd
fb
f3
ff
f5
ee
f1
f3
08
f0
f9
f0
fe
00
00
06
04
0d
04
f7
05
f4
02
f8
ff
0d
f5
02
e7
ff
03
fd
09
f9
fd
00
f9
e7
f8
fb
04
f1
ea
07
fc
01
07
07
01
13
0a
f8
03
fb
fd
00
fc
fd
06
f9
fd
01
fc
fe
f6
f4
f3
f8
ea
f0
f2
00
f7
f4
03
f7
f2
f4
00
fd
f7
0b
06
f8
f1
fb
04
f0
07
f3
fc
f1
00
f7
f6
fc
05
ec
f4
01
08
fb
fc
e7
fb
07
0e
09
00
ff
f7
ff
06
03
ea
03
ff
03
fb
02
0c
08
08
04
f7
08
0b
fc
00
0c
0c
fd
11
f7
fc
0f
ff
01
0f
01
f6
f4
fa
fd
f3
ff
fa
0a
0b
fc
02
f8
03
f5
06
fc
01
fc
01
0a
eb
f9
fe
eb
f6
0a
01
f9
fe
f7
0b
11
0c
0d
01
0a
fd
ed
0f
06
10
06
07
fc
f5
03
fd
0d
fd
02
ed
04
09
06
fe
e2
fe
07
0f
03
f5
07
f4
00
10
f3
00
f4
fb
ef
06
ff
0a
fb
0b
fb
07
ff
fb
fa
fb
06
03
11
f0
fb
fc
f8
e3
12
fc
fd
f1
f2
f7
fd
f7
ef
00
07
02
ec
02
f1
f6
fb
fb
fd
06
f8
06
0d
fe
04
f3
e9
01
0b
0d
ec
fe
03
f8
00
fa
09
0e
e5
03
0a
f3
fe
f7
fa
05
0d
0f
fa
01
07
18
f5
ff
ff
08
07
f8
f6
fd
05
10
f4
0b
01
0d
06
f9
08
fd
07
f9
f3
fe
ed
15
f6
01
f0
00
f6
fa
0c
14
07
f2
09
0e
13
f8
fb
02
ff
04
0a
07
f1
08
01
fc
0e
f5
09
f0
ff
0d
0f
f6
f8
09
f0
04
03
f0
05
0e
02
08
eb
f1
13
16
f3
fa
04
0d
f5
f5
fc
05
12
fa
03
f5
eb
ef
fb
f1
f8
0e
fb
10
08
0b
e9
06
03
ef
fb
ee
f9
ee
0d
ff
f1
ed
f8
01
f6
12
08
0f
fc
fc
f6
e2
f0
f4
04
fb
04
f5
04
fa
08
08
00
fe
04
fb
0a
f4
fe
fa
fd
04
f6
f8
06
04
03
01
e2
fd
f0
08
02
fc
fe
01
fb
06
ff
f8
0f
f9
f9
01
f4
00
ff
fa
0b
ef
ff
e8
fe
07
00
f8
fa
fa
f5
f8
e0
fa
09
fb
02
ed
fc
03
ec
08
ec
00
0f
fb
fc
04
f9
02
fe
fb
02
0b
f2
e9
fc
fe
f6
f8
f3
f7
f1
eb
f1
f1
f6
f6
f0
01
fd
f7
fd
fa
f0
ff
0c
ea
06
ed
f9
f6
f9
fb
f3
fe
f2
00
05
f6
f8
02
f7
f5
02
0a
f6
f6
f5
fc
f7
0b
f9
f8
10
03
01
eb
07
f6
ff
f4
fc
fe
09
00
0a
08
f6
fa
ff
05
05
0a
0d
0a
04
12
ff
fa
ff
ef
fe
01
02
08
f4
fc
ed
08
0e
f8
01
09
fc
01
01
0b
02
fa
f2
ff
05
f7
ff
fd
05
f7
eb
08
fb
f5
f7
f9
fa
0f
09
f8
04
f2
fc
f5
fe
e5
ee
f1
fc
f4
07
fe
0e
ee
f3
07
04
ff
fb
00
03
0d
f0
fb
0d
00
01
f3
10
0a
03
ef
fc
fb
fd
06
ec
fa
f3
00
f1
00
11
0a
fd
f2
f2
fc
01
0d
ec
f8
0b
00
0f
fe
0e
f2
0c
f6
05
fa
e5
01
f7
f0
fc
02
ef
f7
f8
02
f6
09
f7
fb
01
04
f8
f4
f6
03
04
05
07
f6
07
fa
09
ea
f5
fe
f4
f7
01
1a
ec
e9
f5
0d
03
ed
fa
08
fe
13
fe
00
f5
fd
0f
ff
fc
f2
03
0a
f9
07
f2
0f
05
f4
ff
0e
fd
11
0c
0c
fd
f3
05
fb
04
fc
ec
f7
05
fc
03
02
fe
08
09
ed
02
fd
fe
fd
13
07
f4
06
fc
04
fa
03
05
06
ff
f6
fe
f8
06
02
ff
05
03
0a
f7
0c
0d
09
0d
10
f7
07
fd
17
f9
f7
0b
05
fc
ff
04
fe
14
f8
03
f9
f7
06
f7
f9
f8
00
fb
01
05
14
f9
10
01
0f
f4
fd
04
07
00
fa
f8
f5
08
12
fd
0a
fd
0e
f5
01
06
ff
09
02
0a
f5
0d
04
02
00
f8
07
10
15
0a
f6
0a
04
f7
06
fe
fc
fd
02
fe
fd
f9
fe
f0
f1
f7
fa
00
fe
fe
00
f7
fa
f0
ee
0c
f9
01
05
f6
05
01
02
00
f2
00
00
fc
fc
10
03
07
f6
f3
00
ec
fb
05
f4
07
f5
0c
fb
ec
fd
f3
03
0f
ee
ef
f9
f7
f5
f7
fb
02
07
04
f8
fd
fa
fb
01
f7
f7
f6
f2
f6
f1
f3
01
f5
f4
fa
eb
f6
f0
f8
eb
0f
fe
01
ea
f7
f5
f7
ee
03
fb
fa
ee
ff
f7
04
f7
ef
e4
fc
fb
f9
eb
e5
fe
fb
07
f3
f1
01
f3
ef
06
0b
fa
09
ee
fb
f6
fc
07
fc
0b
f7
01
f4
fa
f8
01
08
f8
0d
09
fa
fe
00
fa
07
04
eb
04
f7
e9
f9
06
00
eb
02
f7
fd
00
fd
11
11
ec
0c
ff
fe
00
11
08
e8
02
08
06
00
02
02
f3
00
02
10
e9
ff
f3
03
ea
00
fe
eb
f6
0d
f7
04
fd
02
06
ea
f9
fe
1c
fb
fc
f7
02
03
f1
03
02
10
fa
06
14
e2
f9
f9
ff
f7
01
f4
08
03
0c
eb
02
0c
fc
fc
f0
02
0e
00
01
03
09
05
f7
fb
0c
04
0a
ff
f9
1c
0d
09
02
fe
07
08
f9
f4
06
fd
08
01
00
0a
0a
09
f5
13
19
06
02
0c
05
01
f7
1a
f6
0e
01
f4
0a
14
04
00
12
ef
1e
12
01
01
fe
ef
05
15
fb
0a
02
0b
f9
0e
fc
06
ff
02
10
f5
01
1a
0e
11
ff
0a
10
f8
01
06
21
f2
16
0a
f5
02
18
09
f6
fb
11
07
fa
f9
07
0f
0f
fc
13
12
0e
0f
07
08
fb
05
06
fd
01
f7
01
03
0a
fd
11
fe
09
ff
fd
0c
08
07
12
04
01
0b
07
fb
04
00
02
0d
07
fa
f9
0b
03
0b
fa
07
fd
02
ec
1a
0c
f2
03
eb
02
0e
f1
fd
fb
fe
fc
08
08
f6
fd
fb
f8
03
fd
05
0c
e2
0a
fa
fc
fa
f6
ef
0b
f2
04
02
f6
09
07
09
f4
f9
03
ff
eb
0e
f5
04
f5
07
f6
f9
08
ff
f6
fb
f4
ea
eb
ff
ed
ea
f0
f0
f8
f3
f9
fa
00
fa
02
fb
fa
0e
fa
f7
ef
00
f7
03
f7
06
f1
fb
0d
fe
f8
fe
fe
fc
fa
ff
f7
03
f1
03
00
fc
f3
f3
05
fc
07
07
03
0a
fe
f9
f6
03
fb
02
ff
06
0c
fd
06
f9
04
f9
01
06
02
08
f1
f6
fe
f5
fc
f5
f7
f6
01
e3
0d
01
ff
12
00
08
fd
f7
02
f4
06
fd
ff
ef
f1
fb
f0
f0
0a
07
f9
08
e9
ed
f9
f1
00
01
0b
02
f7
f7
ff
f3
fa
06
fd
0c
01
e9
07
fa
02
fc
fb
00
fa
f8
fb
04
07
02
ff
05
fe
fe
fb
f1
0a
00
05
02
03
00
0e
04
0e
02
f6
02
06
02
06
f4
fa
0a
fc
0c
ff
fa
09
fc
07
04
09
f4
fd
01
0b
04
ee
fb
ff
fc
f9
f7
fb
09
f9
f7
19
00
08
0c
03
05
fc
f0
fd
ef
01
03
f4
f9
f5
fa
f8
f3
e5
07
08
fb
ee
00
f5
fc
fc
f0
f7
e4
08
f0
f6
fb
01
f0
f6
02
f7
fa
f6
fe
ec
07
f4
f9
ef
f2
f1
f7
fc
16
f5
ff
ff
f4
0e
f0
ff
f5
fb
f2
02
f9
fd
fa
fa
eb
fd
08
f7
01
fa
f4
f9
09
00
0d
00
fd
fd
f9
f2
06
fa
f9
f9
f6
0e
fd
f6
f8
07
07
14
09
ef
f5
ec
04
fe
14
0d
0a
f4
05
08
0e
f8
05
fc
fe
0e
04
0a
ff
fe
10
0c
0d
0d
12
0a
e6
1d
ff
fb
f2
01
ff
03
f6
f7
16
f3
0b
0f
02
ff
05
15
04
ef
11
02
08
f5
01
07
0d
f7
0c
08
fb
16
ef
12
02
fa
f8
12
0b
11
08
0a
12
16
05
06
07
13
f8
02
12
fe
16
05
0b
05
f9
0c
05
f9
06
ff
19
0e
03
12
08
0d
fe
fd
0b
09
0c
0a
ff
0f
03
07
0d
05
0d
09
f3
06
14
14
0c
fa
fb
12
fb
0e
03
06
0c
f4
15
18
12
00
ff
07
0d
05
0b
f9
ff
f1
fe
fc
fe
0c
f6
f8
ee
02
ff
f2
f6
ef
fe
f8
0a
06
fd
01
f1
01
00
0d
0e
05
04
01
fa
fa
01
03
0e
02
03
ef
ff
0d
ff
ff
f8
08
02
fb
ff
fc
08
f9
08
05
07
ff
f8
ff
f8
06
08
fb
01
02
f6
f5
01
04
12
0d
05
f9
fc
fe
fd
09
fc
05
03
ed
09
f0
00
fa
05
f4
03
f0
fb
0b
fb
15
f2
ff
0d
fc
f5
00
00
09
02
f8
fb
f5
06
fb
f7
fc
06
0a
fd
f3
04
eb
fe
fb
fd
fb
e9
fb
f0
08
e9
08
f6
fa
08
f3
fc
f8
fb
fe
ef
f4
01
e8
07
f1
f7
f2
0e
f8
f4
ff
02
06
fb
ff
03
00
0c
ff
fb
08
f9
08
f0
fd
03
05
02
06
f6
fa
00
f7
09
05
02
fd
ff
f4
0f
10
09
03
eb
ff
0c
09
fe
f8
fc
f6
01
fc
fd
ef
f2
00
0c
fa
f8
15
01
0d
fb
ff
ff
fc
fd
f9
06
f4
04
f2
ff
00
f1
ef
07
f1
f5
f2
f6
fe
00
f9
f5
f1
f1
f7
00
ee
02
f1
f5
fe
00
01
ff
fe
ea
f8
06
f9
fb
f9
f7
04
07
f8
ff
f0
fa
f8
ed
f5
fd
ff
fe
05
ee
ff
0d
fb
fe
f5
03
f7
f8
fa
f6
fc
f8
dd
0a
fc
08
00
f7
00
08
f2
ff
e6
f9
fe
e6
fe
f9
f4
f5
fe
f5
f5
08
ed
f2
f9
fe
fc
01
f4
00
ff
f8
fb
08
00
02
fe
11
09
ee
05
f1
ed
06
f7
f6
fc
ff
ff
f1
f2
e9
eb
09
fb
01
fb
f8
06
11
09
0b
ff
fb
fc
0e
ff
0b
ee
03
00
06
01
fa
03
12
f0
f9
00
11
fe
f6
09
fe
fb
02
ee
02
ff
02
03
15
08
0b
02
f6
f9
00
07
fa
17
f4
06
09
0f
eb
00
fe
17
e2
03
09
02
0f
1c
10
fa
f8
f6
fe
ed
0c
fb
00
f1
0c
0e
00
07
fa
0d
f1
05
0e
17
09
01
fb
0c
0b
09
fb
ff
f1
0c
ff
06
01
f4
fd
16
11
0b
fe
11
f4
ed
ff
04
fe
f7
ff
f3
f9
f8
f8
f9
e9
ed
fa
06
f1
f9
fb
0c
f0
ec
ed
ef
00
07
06
09
fb
f8
fe
fb
f9
ff
06
f0
fc
fc
fc
f1
fc
f7
ec
fe
e9
05
0c
f3
fd
fc
fc
0c
07
f0
fa
eb
ff
f7
02
ff
ef
ff
f5
f8
ff
0e
f7
f8
ff
fd
07
fd
fd
fb
f8
04
01
ff
0d
f1
00
ec
f8
fa
11
07
fb
fc
f1
0a
ff
f2
00
ed
f2
02
08
fc
fd
f9
08
0b
00
05
12
ed
fa
fe
f4
02
f5
f3
09
0d
ed
f6
09
ff
0a
f9
14
f0
fd
fc
02
f9
0b
01
03
f1
fd
fa
02
fa
fd
06
01
01
fa
fb
05
fc
01
09
0d
0a
f9
e7
ff
02
f3
03
01
fb
03
1a
fd
f9
f3
fc
f6
07
0a
0a
01
fd
f2
02
f5
fd
0c
fb
f5
03
f7
fe
01
07
f8
ff
06
06
09
f4
0e
f7
0f
f2
06
fc
09
04
fb
11
05
05
fe
10
fe
00
08
f9
13
0d
fb
07
f3
f7
07
f8
00
02
f9
f9
fb
f5
03
f3
08
00
00
fe
f9
f4
f7
02
f7
fa
f3
fb
05
f4
fe
07
eb
03
fa
f8
f7
ef
02
02
fa
fe
00
f5
fb
ee
ff
1b
fd
f9
f4
fb
03
f9
0a
fb
eb
f9
f2
ef
0c
ff
ed
05
f9
0d
f0
fc
ef
eb
fc
f9
fc
fe
f7
ef
f5
ea
fb
f2
08
fe
ff
f9
f1
fe
07
f0
00
05
ea
05
0e
09
fc
f3
0e
00
f6
00
fa
f8
06
fb
fa
f9
e5
f4
ff
f5
fd
ec
05
f7
f8
05
fb
f7
01
06
ee
04
07
02
08
05
fd
fb
0b
0e
f4
03
f1
05
fc
f2
03
f9
ff
f1
f2
f5
fa
fb
09
02
0d
07
fd
07
02
07
f9
fb
f7
00
0e
fb
f5
f6
0e
13
f0
02
f1
fd
03
07
06
01
01
f7
00
f7
f4
03
04
fd
fb
02
02
0a
01
f5
fb
f6
f2
f5
08
06
07
03
01
f1
f8
09
03
07
0a
f6
01
ef
ff
16
09
f5
04
f4
04
ee
f9
0f
02
0a
f6
f1
06
ff
00
f8
00
f5
fa
f2
02
fe
ea
e4
f9
f7
f8
f3
f5
f2
f1
f4
03
eb
fd
fb
17
f2
03
00
02
f6
fc
f3
04
00
f7
f6
03
f4
f4
fb
0d
00
f6
f8
00
f8
fb
f7
f1
05
f3
f7
f4
f0
f9
f9
0a
f6
fb
fa
f0
fc
05
00
f8
05
eb
03
fd
ff
08
f7
04
09
ef
0a
f6
f7
01
f7
14
03
0c
0f
01
f0
0a
ef
08
f2
09
0b
fc
fa
05
02
f6
f8
07
f3
fe
fa
01
f2
02
11
fa
0b
01
10
fe
0c
0e
fb
0b
f8
14
f8
15
fc
ff
18
02
07
0d
f8
04
e9
03
05
ff
f1
00
04
ef
f3
08
f9
01
07
03
09
fe
f9
f7
f7
f6
01
08
03
09
28
f8
0d
09
0e
01
07
f2
00
fb
02
02
05
f0
05
08
f9
08
07
01
0d
00
f9
f2
fb
00
fa
0a
18
05
fa
10
ef
07
fd
0d
fc
0f
11
fc
12
02
fb
1b
fe
f6
fb
23
fe
03
01
05
08
f8
f7
f2
f0
f5
fc
13
fe
f6
fd
09
0b
0a
04
fc
eb
1a
00
00
02
01
0b
fc
ed
05
0f
f8
00
fc
0b
01
fd
ed
ee
fb
ff
f7
01
f7
f8
fa
fa
f5
f4
07
fe
00
fd
fb
f5
ff
fe
00
f7
f0
f0
0a
fc
fa
f0
f4
05
fb
f7
fe
f3
01
f7
fc
02
f2
f1
fd
fd
ec
06
06
fd
e5
05
ec
fb
02
e9
fb
02
e7
ed
04
ff
f2
02
f9
f7
f7
f7
f9
f8
00
f9
fc
04
e3
ef
f5
ee
f0
0b
01
f4
fd
fd
f1
00
fb
ed
f6
fb
05
f1
08
f2
f7
f5
ef
fc
fd
fe
f7
f4
06
f8
e7
f7
fc
f8
fe
ea
fe
07
ff
f7
fc
f5
f0
ff
fe
ef
fd
ff
f6
f2
fe
f9
0e
fe
fb
01
f4
fe
08
f9
05
f8
ed
01
ff
0c
04
ec
fc
fa
fb
f8
f5
fd
fb
08
fe
09
e9
f3
10
f4
03
f8
12
04
fe
ff
f7
02
02
01
fe
fa
f6
fc
11
10
05
f8
fd
ff
05
f3
f3
00
0a
06
fc
fb
0a
f2
ff
ef
fb
f9
03
fb
fa
f7
f9
f0
f2
fa
f1
f7
f8
f9
f6
04
04
00
f6
f1
0c
f4
f3
f6
01
f8
f6
fc
15
ff
f1
ff
f7
f5
04
f4
00
f7
f8
ef
ff
ee
fa
f0
05
f9
fa
fa
f6
fd
f6
f9
0c
fd
f3
03
03
04
f7
f5
02
05
00
f9
f9
02
0e
f8
f7
f2
fd
fc
00
03
fe
f8
f7
0a
05
f1
07
01
08
f6
02
02
0e
06
05
ed
fb
0d
02
0a
0b
f2
f8
0c
f8
fd
f6
09
fc
04
05
fd
03
06
fa
f3
09
02
04
03
05
0f
ff
0c
03
01
fd
02
09
fc
f9
f6
0e
fd
ff
f7
fc
f4
01
fb
fd
02
fa
ed
f9
ff
ec
f6
01
14
05
00
00
11
0a
f1
f7
09
08
05
fc
f2
fa
f8
17
fc
03
f5
13
02
f9
04
0f
0b
fc
ef
01
0b
ef
e5
0a
13
05
12
10
fc
11
05
f7
fe
21
07
fd
f4
fe
03
0f
ee
03
01
0b
07
fb
09
ff
f6
fe
ff
04
f8
e8
ee
fb
06
ff
0b
ff
fc
0b
05
f8
ec
0f
f0
04
00
fb
fd
01
fa
03
03
f4
fe
f3
07
f9
fa
f1
f4
01
ff
e6
ec
03
0a
f2
04
fa
fd
0e
f0
07
f6
f8
fa
09
f9
01
ef
ee
f4
09
fc
05
04
f2
09
fe
fe
f1
e5
01
f9
ec
fa
f0
f5
fb
f8
f9
02
0f
ed
e9
e4
fe
e8
05
f0
07
07
f6
e9
05
f5
fb
fe
ed
ff
08
ec
fc
f2
05
07
e2
ef
e1
fa
fe
fb
02
ed
07
eb
0b
fa
fe
fc
02
ff
06
03
fa
f3
0c
09
f3
fc
fb
10
f5
0b
f2
fd
0c
eb
fb
fa
fa
ed
f4
fc
f3
f8
06
fe
0c
03
f5
f4
08
eb
f5
05
f6
f3
06
0a
fa
f3
05
0c
ee
03
f4
fe
05
03
ff
07
e1
ff
fb
f7
fb
f6
00
e6
02
fa
f6
0f
03
ff
ff
f5
0b
fb
0a
f7
10
fa
04
01
01
f5
02
0b
fd
f2
0a
f6
0b
10
f0
07
f7
fc
0a
f4
fa
02
03
11
fb
ee
0b
f9
fd
f1
f9
02
fa
06
fd
f9
fa
fe
f3
f2
03
06
eb
e7
ef
e8
02
f2
06
ff
12
f2
f6
fa
f6
01
fa
f4
0e
07
fe
f1
fb
fe
fc
08
fc
01
ee
f6
fc
f0
06
fa
f5
f2
f3
f9
f9
f1
ff
fc
0e
fc
10
03
02
01
ff
f0
ff
f9
ff
01
00
f3
f9
0a
f2
f8
01
fe
f6
fa
fe
08
f9
06
f2
eb
13
ef
13
fc
01
06
04
fc
f8
fb
fa
00
02
04
0c
fc
fa
08
ec
09
08
05
01
03
06
fd
03
11
fd
f9
0b
07
05
f9
07
0c
fe
09
03
05
02
fd
f9
f5
f7
01
15
f3
f9
fd
14
fe
07
06
f2
01
f4
f2
fa
02
fd
00
fc
fc
06
fa
06
f7
0b
ff
03
0f
11
07
fe
fd
f8
05
fa
14
01
03
fc
fe
09
0c
f0
06
f0
11
00
f8
10
f9
fa
fd
05
fa
0b
fc
0d
09
fc
0a
0f
f8
04
02
f7
f9
05
0b
01
01
fe
fc
04
0e
f7
fd
f3
01
08
01
0b
00
01
fc
fb
fd
fa
fb
09
fc
fe
0d
06
02
fa
0b
fa
fa
05
fa
ff
08
0b
03
08
0e
fc
f3
f1
ff
04
f8
06
02
fe
fa
ea
ff
f9
ed
0d
ff
fa
02
ff
01
02
01
02
fe
f8
0a
09
f9
eb
03
04
11
f5
f8
f1
fc
02
03
0e
01
02
f0
fa
ff
fa
ee
03
07
fa
f7
f6
08
fd
fd
f3
09
f4
04
09
f7
e9
eb
03
ff
f1
fd
ec
07
01
e7
f1
06
fe
f6
04
fe
ed
f9
ff
f0
13
04
f7
03
00
11
e6
0f
ef
00
00
ff
f9
fb
06
0b
fe
0d
ef
fd
fd
e9
01
01
09
fb
f5
f4
f5
04
01
ee
0f
01
f2
05
0b
0d
07
ee
09
06
01
ff
08
f8
0c
0a
12
0c
fb
03
05
03
0a
02
04
04
04
f5
0f
fb
02
f6
f7
06
07
00
fc
07
ed
fb
08
00
04
fd
ff
08
fb
05
04
f3
f4
f7
fb
f3
f1
f9
0a
00
f9
09
fa
09
04
04
07
02
05
00
f9
07
09
f2
05
f3
18
f4
11
ff
f2
0d
ef
04
04
fe
05
fe
07
0d
07
0f
fc
fb
02
03
fb
0b
fb
ff
01
01
07
0d
07
fc
f1
f1
15
06
19
0b
05
fb
fa
f8
0b
16
05
1e
01
02
02
fe
ef
04
0b
fd
f5
13
07
2b
07
ff
eb
f5
00
08
06
fe
0f
0a
0d
0b
08
0a
fc
f6
01
0a
fb
0a
f1
08
10
04
fa
07
00
0a
f3
01
16
f6
09
16
10
fc
04
f7
04
00
0b
03
02
07
f9
14
02
fa
05
ff
ff
06
fd
00
0e
0e
f7
0a
05
f2
ee
0f
01
00
11
0c
02
f4
13
00
f7
f4
0b
10
18
03
fd
01
0b
f2
08
0d
08
08
0b
03
fd
10
eb
08
11
04
f3
0b
f9
fe
f6
fb
fb
f0
0a
ff
fa
f9
06
09
15
fc
0d
07
05
e4
0a
00
09
fa
02
05
15
08
15
17
f6
fa
f6
03
ff
fb
fe
0e
16
01
15
03
07
11
10
05
f9
fe
0b
e3
04
03
ff
08
07
00
12
fd
f4
1e
fe
fd
00
fc
f3
01
00
13
0d
fa
00
0a
f8
0f
01
08
12
09
f6
0c
01
15
03
f3
06
00
07
f4
02
0e
ff
fa
fe
07
fa
08
f0
0a
fe
ff
05
05
fc
f4
0c
f5
09
09
06
0b
f5
fd
ed
06
09
f3
0e
f6
00
0e
0b
05
fe
f6
fb
fe
02
07
ff
fa
08
10
01
04
0c
00
06
0d
0d
0d
0d
0a
00
02
fb
0c
01
09
03
fa
05
0f
11
0e
fc
07
16
02
01
13
ff
f8
fd
01
01
00
fd
f7
0d
ff
03
ff
f8
fb
fe
f4
f4
f3
05
0a
06
02
0e
05
1e
0f
ef
06
ff
14
04
01
08
f9
19
16
17
f6
ff
06
05
00
09
00
01
11
ed
0a
fe
f9
fd
09
11
03
f9
f1
18
0d
00
fe
fe
0a
fb
08
fd
ff
00
07
09
f6
f1
fd
fc
fe
00
05
f5
11
03
10
e8
04
f7
15
08
02
0a
0e
fb
f5
00
18
fe
f2
fd
03
fd
06
02
03
f5
00
0d
06
fe
fb
ff
fc
0f
08
20
10
f9
02
00
01
0f
08
04
0a
0b
0c
14
0c
fc
0f
0a
02
ec
11
10
f5
06
09
0a
f4
fd
f1
05
03
12
0a
0c
09
06
03
02
fa
0c
ff
fc
10
f4
06
22
ff
fe
03
11
05
fe
0f
05
f7
f9
0a
08
fe
fa
f9
f5
13
10
05
fa
04
03
0d
06
01
ff
f9
fd
07
09
11
0a
13
01
00
03
09
01
09
ff
fd
fb
f8
05
07
07
fb
ef
fe
0a
0a
fd
05
fb
0d
fd
f2
ff
ff
fe
0c
fb
02
18
14
01
11
0b
04
fd
09
fe
f9
f2
09
02
06
05
00
02
00
0b
15
12
fb
06
ff
f2
00
f6
0e
08
01
02
0a
00
0b
fa
0b
03
02
fa
0c
f7
fa
04
ff
f9
fe
f8
02
03
fe
09
06
00
f7
f4
08
fa
f1
04
04
00
00
14
04
07
fb
07
0f
f9
00
05
02
ef
12
ff
05
f8
00
f8
03
0b
05
0b
09
01
07
05
00
01
08
04
0b
0a
fa
0a
f8
18
1e
07
00
f8
05
06
12
e1
fe
0c
f8
05
02
02
04
03
04
09
f3
07
02
0c
15
fa
ff
01
0b
fd
07
0a
0c
06
fd
ea
08
ed
f9
03
09
fd
01
08
ff
07
f5
f7
fd
08
03
fb
02
0a
f9
00
fd
02
02
04
00
f9
01
03
05
0c
fc
fe
09
00
00
ff
0a
f9
04
01
fd
0b
02
08
f5
07
11
ff
f0
fb
fa
03
02
fe
fe
09
01
f5
0b
0f
14
11
f8
fa
03
0c
00
f3
0c
0a
fd
f7
06
f7
0a
00
fe
f8
14
fc
06
fb
fa
ff
f7
fb
0f
05
fb
10
03
0e
06
fe
f8
08
05
05
01
f6
fb
01
f4
0f
06
08
05
f4
08
02
04
05
0d
ee
f5
f9
09
f3
10
02
fc
fd
04
f9
fc
10
fc
07
03
f8
f8
fc
ff
14
fb
fe
06
05
0f
fd
ff
0e
0d
ee
01
01
08
f9
01
fd
ff
08
f5
07
04
09
0d
fa
0c
f2
ff
02
f9
00
f9
03
03
03
03
07
0b
04
0c
08
ff
0e
02
05
09
f1
0c
09
00
01
06
09
00
03
f9
fc
13
fe
03
01
fb
f8
06
0b
fb
08
00
08
f3
05
fb
f4
06
fe
1e
01
ff
00
fe
fb
f9
0b
0f
02
07
05
fb
08
11
05
0a
10
0d
ef
03
01
07
07
fc
02
fd
f6
f8
0f
02
09
0b
0e
f9
fb
08
05
ff
02
04
fb
08
04
01
ff
04
08
fd
0d
08
ef
13
03
05
f9
0c
fb
05
00
ef
f3
f4
13
f2
00
0f
f0
07
00
f9
f6
f3
fb
0f
fb
05
fb
10
02
f2
09
f8
fa
fd
05
00
03
03
1b
05
fc
f4
f7
f7
0f
0b
05
02
f7
fa
02
f6
00
f5
03
f8
ff
10
ed
10
f4
00
f6
08
06
06
02
02
05
02
f9
01
06
02
00
f3
05
03
fe
08
f3
f8
fe
fa
00
ee
f7
09
10
13
0a
00
08
0b
f7
00
0d
16
f9
f3
ff
f7
11
02
04
ff
fb
01
f8
f8
f8
f1
ff
07
03
fd
05
0a
f7
0a
01
08
14
09
07
00
13
04
fe
08
fb
ff
0c
fe
10
18
05
f6
01
02
01
0b
13
f3
f8
06
fb
ff
09
09
01
fd
19
03
0b
00
f4
03
fd
0b
f8
0e
f8
07
fe
f0
03
0a
fe
ff
fc
0f
fc
0a
00
07
f5
02
f6
03
02
06
00
f9
0a
fc
01
fc
fa
fc
03
f0
fa
09
fa
10
ef
0a
ff
0b
0c
09
08
01
03
f6
02
ff
01
09
02
05
fd
f8
03
fd
08
0a
0a
0b
fc
05
00
fc
f8
0e
0e
ff
f8
00
07
fe
05
01
0d
06
09
08
f5
fa
fd
f2
f7
06
08
05
05
f6
0d
0f
12
ff
0a
03
f7
0b
fd
ff
14
06
02
f1
0b
05
f9
fe
fa
09
ff
f9
fa
07
e7
0e
03
03
07
07
ff
fc
fb
00
0d
f8
f7
0d
06
12
f6
03
11
09
15
04
f1
0d
08
fd
02
fd
fd
01
f5
e3
fe
00
00
0a
03
ff
03
f9
04
0a
15
15
01
f1
00
04
fc
03
fb
0c
fa
0c
00
f2
06
fa
f4
f0
09
14
09
03
0d
12
05
04
fc
09
1f
f8
ff
0d
05
09
fe
fa
0b
f3
07
fe
03
f8
00
02
07
0b
01
fd
01
09
04
16
00
fd
0e
0e
fe
05
f8
00
1e
0e
00
03
12
04
f9
04
0a
07
f6
06
ff
05
01
04
fa
01
f0
fe
f8
07
0f
07
01
05
02
0b
f2
00
06
08
fa
fd
05
fc
1a
1e
10
00
0a
fd
fd
fd
02
03
0a
03
1a
0f
f7
fd
04
0d
18
fb
09
fe
f3
0b
08
04
02
f8
fa
fc
06
05
0c
08
0b
09
06
0d
fb
16
03
f6
f5
05
18
f9
09
f2
05
07
0e
f9
fd
fc
f6
fb
fc
f0
f9
f8
fb
fd
fd
ff
0f
06
f7
19
0f
11
01
08
f8
fd
f3
07
03
01
10
f7
f7
fc
02
0b
0d
e9
ed
01
03
05
f3
fb
01
ee
06
16
03
10
ff
07
0a
f2
f9
16
16
03
f5
00
0d
04
f2
f4
1e
0c
09
09
04
fa
ee
00
ec
07
fe
f9
0c
0a
1d
20
08
02
fb
0d
08
02
f6
14
08
11
0a
0b
fb
fd
f3
0e
03
0f
0c
ff
01
00
00
03
ee
13
08
09
05
f9
14
07
17
fb
f1
05
01
fe
f3
0b
08
18
f4
17
06
05
04
02
0a
08
fc
13
08
07
f6
f9
e8
02
f7
04
fb
09
03
0f
0b
fc
ea
f9
01
fa
f5
05
03
03
f9
fa
fb
07
f6
03
fd
fd
0e
f1
02
0b
06
ef
02
07
03
fe
f7
00
0e
03
fc
fb
fc
f3
fd
fc
fe
03
12
14
fd
fd
f9
0b
f3
00
01
f7
00
ed
f1
0c
f6
08
ff
07
12
01
f8
fa
00
0d
f8
ec
03
06
fd
14
f3
00
f7
0e
06
04
0c
07
00
0c
0a
0b
0e
05
0d
f7
f5
00
01
1b
06
04
12
00
11
0e
fc
fe
00
f6
16
06
fc
fa
f9
f8
fd
fe
e9
0e
eb
fa
05
07
f9
0f
f8
09
fc
05
fd
fe
0d
fb
f7
0c
09
01
0b
f4
00
ff
f8
06
f6
02
fa
07
ff
fd
14
03
06
02
1d
07
07
13
0d
0a
04
0c
10
00
05
f5
0a
0b
05
f7
fa
16
03
01
fb
ff
ff
08
01
02
ed
04
03
04
09
09
ff
f7
0e
f8
00
06
fc
1a
08
f5
fd
fd
f8
f9
10
13
04
08
fd
11
08
02
f8
fc
04
16
00
07
06
fd
f7
fe
0b
ff
01
fc
0f
13
04
01
00
0b
fb
05
08
05
02
fe
fe
13
02
05
fd
05
fc
04
f3
fe
17
01
0d
03
f6
f2
01
02
1e
07
f4
09
f6
04
f7
fc
0d
f8
e9
f4
00
0d
0f
05
fe
f7
04
05
f5
04
f7
00
12
fd
00
0a
f9
f3
0c
f9
0c
f0
03
e9
f2
06
f3
fd
07
03
04
f8
06
07
ff
0e
f4
08
06
0f
f7
15
fd
f8
07
fe
04
fa
05
00
13
f6
0e
17
f3
f1
f0
0e
f4
07
fc
f8
01
01
09
03
12
0f
03
fd
06
16
fd
02
0b
0b
f8
0c
ff
fb
fb
fd
ff
04
01
ff
02
f9
f2
fa
eb
05
f8
05
f4
f2
06
08
f1
1a
01
04
09
0a
05
06
1c
11
05
25
ed
04
ef
fd
04
fe
0a
0e
17
08
01
fe
f3
fd
fe
01
f3
01
13
03
03
0c
f0
ec
03
f9
fa
fd
01
06
12
0d
fd
0c
f7
f8
14
09
f2
0c
0e
03
ef
fa
de
05
01
01
f9
f7
0f
11
06
14
f9
f2
ff
07
fb
ff
09
1b
ff
10
01
08
ec
01
07
10
16
0b
01
f7
ea
f2
fc
08
f9
02
f9
07
0a
02
0d
08
f5
00
07
f7
ff
00
06
fc
09
11
fd
0d
04
f6
1b
11
07
f3
10
f0
05
0a
e6
0a
0b
ff
f8
e9
07
05
fa
fd
08
0e
00
0b
f3
04
0b
f7
ff
fb
f8
ff
04
03
15
0d
0a
10
0b
fb
03
03
03
06
08
05
06
05
f4
05
fa
f9
03
fb
04
fa
f4
03
01
05
f9
01
f0
f9
07
fe
03
08
04
09
01
03
e8
07
15
fb
0e
0d
04
08
ff
00
f7
fa
f4
17
02
fe
f5
04
ff
02
09
0a
0f
01
01
f7
ff
09
00
02
f4
10
09
10
10
03
06
ef
05
07
03
07
00
07
f0
0e
fd
ef
fb
fb
0c
02
04
21
00
0f
15
fc
02
f9
15
09
06
fc
02
01
16
fe
fc
f9
13
fd
0b
14
0a
01
08
0d
08
0f
02
05
fc
f9
14
f8
14
02
ff
0b
02
fd
0e
03
ed
0a
f8
fe
ef
01
fb
04
03
f7
fd
ff
fc
0c
0c
fc
09
04
fa
01
fd
08
05
0a
fb
02
f9
fc
02
13
13
f9
f1
0b
04
fb
f5
f9
fc
08
f3
fb
ff
04
11
f2
fb
ec
00
ff
f5
04
01
fc
08
0c
0f
05
fa
fb
fc
04
0a
fb
07
0f
06
07
f7
00
ff
00
fb
0f
09
16
f5
07
08
fb
0c
05
fc
00
21
10
01
08
ed
fc
05
f9
fc
fa
04
f9
fd
fd
fb
fe
f7
fc
05
ff
f9
ef
06
08
0b
11
01
0d
06
fb
07
0f
f8
12
13
0f
05
0a
07
01
f5
fc
06
01
fa
07
f3
fb
f0
01
04
11
0a
04
10
04
ef
02
0f
f9
05
07
07
06
19
0d
fd
f5
04
01
f9
04
00
10
00
f4
06
06
ef
fd
fc
03
0a
09
02
ef
07
10
fa
04
09
f8
03
fc
ff
04
f8
f2
07
03
ff
fd
ff
f9
f9
03
14
05
06
0a
01
06
06
07
04
fc
f3
06
03
0e
f9
f4
f7
eb
0b
f0
f4
02
15
06
fd
0a
04
0e
0b
16
06
09
01
ec
0f
02
05
fd
f6
03
06
0b
fe
02
12
09
05
02
fb
eb
fd
0b
f5
07
07
08
0b
fe
00
08
0c
06
06
08
0f
fb
f3
fe
06
0e
03
09
04
10
00
0e
0c
16
08
f9
06
fe
09
f4
f6
f1
08
f7
fd
fc
0e
0e
06
f8
0a
fb
02
17
1d
f8
0f
14
04
0d
ff
04
25
09
f7
fe
0d
fc
0d
fc
fb
f8
ee
fb
fc
fe
06
0c
05
fc
00
f9
f9
fc
03
fe
0c
04
00
17
ff
fc
fe
08
06
15
fe
f8
01
05
f8
fc
01
03
f9
f3
ec
07
01
03
fd
0e
08
f7
0a
04
16
16
08
f6
f4
15
fa
fd
fd
01
0c
e8
05
00
0e
05
fd
ef
fa
f7
f5
fa
03
03
0b
f9
13
fa
15
fc
ff
00
14
00
12
fc
11
13
07
00
05
ff
07
01
03
00
fa
f9
f6
0b
07
06
f9
10
0b
17
0b
fa
15
0a
fb
08
13
f1
0b
ff
06
fe
0d
02
08
02
fe
fd
09
fd
f6
04
f6
0b
fb
0b
07
06
f4
fd
f9
0c
0a
02
11
13
0c
01
ff
09
18
02
01
f9
0d
0b
10
0c
fa
06
04
fe
02
02
f9
10
fe
ff
04
04
ec
fa
10
ff
04
fe
16
05
f5
ed
00
08
17
f1
0b
f3
f2
f8
f5
f9
ff
fe
fa
ff
0d
05
ff
05
fe
02
03
0f
00
08
f3
f6
10
fb
12
f8
0b
f9
01
10
0d
f3
f5
06
10
10
ee
fd
04
04
06
f8
0e
10
fd
02
0e
02
ff
11
0d
11
f6
0e
11
fb
f6
01
f2
fa
f6
0b
ff
09
f9
0b
ef
fd
00
05
f9
0b
e1
04
03
07
01
04
fa
00
14
0d
07
01
0e
f5
fc
0f
09
07
f8
05
fc
00
0f
f2
17
fa
e5
0f
fa
fb
01
10
0e
0d
fb
0d
fa
04
09
09
02
f5
00
00
f7
09
05
f4
f6
00
00
02
0f
0a
05
04
e6
f8
0e
02
f5
10
fa
09
02
f4
13
0c
00
fc
04
ea
06
03
f8
08
fe
03
07
02
17
02
00
02
05
12
08
f3
0d
0e
05
04
fe
fc
03
07
fe
04
07
07
fd
11
ff
0a
0d
f1
07
0b
fb
00
0b
13
0a
12
fc
02
01
f6
02
fa
00
ef
12
08
01
0b
fe
06
03
07
03
04
05
01
00
09
04
0e
01
08
01
fd
0b
f7
08
f0
03
0c
06
11
00
ee
05
0a
19
f9
fa
0a
ff
fc
03
0b
0b
02
fe
fb
00
0f
0f
f8
fd
00
0f
ff
01
12
04
fc
07
01
ff
0c
03
13
fd
01
01
19
ff
12
0a
0c
08
06
00
fc
fc
f6
fe
09
13
f4
f3
fe
f9
09
fe
ff
04
f5
f9
ef
00
ff
0e
0e
0e
fe
fd
04
0a
f3
04
02
13
05
02
15
03
0c
04
00
08
fc
f6
06
08
09
08
06
ff
11
05
04
06
f2
18
03
10
07
21
10
07
09
f4
f9
10
fb
fc
fe
f8
f2
f7
06
07
0e
fe
16
0a
06
07
fe
15
08
05
fb
09
03
11
14
f5
fb
fd
11
04
09
03
0b
0e
0d
04
01
11
01
04
ff
03
f7
fe
f6
ff
0e
f9
f1
15
08
0c
f9
f4
10
11
ff
fc
12
07
f0
0f
fe
fd
14
01
f7
fa
00
00
f7
ff
00
fa
fc
f9
05
11
09
07
fb
ff
03
fd
01
00
fd
0f
0d
15
f0
05
fa
01
ff
03
01
0b
fb
fe
fc
ff
10
f8
f7
f2
05
f8
fd
09
02
08
fe
f5
03
0a
02
fa
0b
fb
f9
08
02
19
00
fe
ff
fe
09
ff
08
ff
02
02
0e
04
07
07
0d
08
fa
f5
fa
08
f7
fd
09
f6
f6
f3
0a
11
05
f7
1a
fa
12
05
f8
fd
0c
01
f8
12
00
01
08
08
03
f9
03
fc
ff
f5
00
08
f8
fb
05
fc
fd
02
ff
0f
ff
f8
00
fb
01
09
02
04
03
fa
0c
06
12
0b
f8
fc
ef
10
fd
f6
08
ec
ff
04
14
f8
02
0d
0a
0b
fd
0b
ea
16
04
01
fd
e4
ff
fc
09
f1
f8
06
fc
00
02
0f
0a
ff
01
05
01
02
00
11
02
f5
fc
ec
0d
f9
10
04
fb
18
06
0f
0b
f2
fd
0f
fd
f9
fa
fb
03
06
05
03
f0
00
ff
f4
02
05
0d
0b
05
0c
13
fb
09
06
08
09
f3
08
01
ff
0c
f9
0e
00
f4
05
f9
fb
04
fd
03
01
00
07
05
02
05
0a
05
09
0d
05
0f
04
18
ff
08
08
0c
15
0d
ff
06
09
06
00
08
0b
ed
09
08
04
07
09
0f
00
1d
f4
06
04
fe
f9
0f
12
08
fe
fb
ff
ff
0b
0d
0c
15
04
01
05
04
05
0b
06
12
0d
07
0c
01
11
03
f1
0a
ee
f5
fa
f2
f2
0a
05
fb
fd
fb
0a
10
0c
06
07
01
0d
14
f4
fd
07
ec
10
0d
0a
0b
f8
ff
fb
05
0b
fb
fa
fc
f3
fe
09
07
0c
02
f3
0b
05
15
1b
03
