f3
17
1a
0d
f1
ed
0f
fc
08
ff
e2
f8
f5
03
f7
e5
11
14
fe
0a
03
eb
fc
0d
fa
eb
ee
d7
d3
ee
16
f9
f0
04
ff
f6
13
0b
0a
f7
04
f5
da
f6
f4
17
1f
f1
05
e8
e0
e8
ea
0e
fd
ea
0e
fc
0c
07
00
e2
0a
ff
f4
1d
08
f5
fa
1b
1c
24
ee
05
14
12
09
0b
db
e7
fe
f5
18
fe
f7
08
0c
e2
f7
09
f0
08
0c
03
e9
01
eb
ff
04
f2
0d
1d
04
0d
09
03
eb
e5
02
ff
e5
08
0b
0b
fb
02
07
0d
0e
13
ec
fd
21
1a
1f
1a
05
fd
f5
fd
f6
06
0c
20
21
dd
f9
02
f5
e5
f4
05
00
cf
1f
04
08
10
15
1d
09
0e
f3
f5
f2
07
f6
03
f5
07
fb
15
10
f4
00
fd
d8
00
fd
1e
19
00
e8
e6
0a
f5
04
1a
18
e7
03
15
03
f4
e5
f6
f1
10
fd
04
1c
02
fb
02
0b
e6
e8
fe
f8
f9
dc
ef
d4
eb
16
0a
f1
12
ea
01
fb
04
01
e2
f8
1b
10
10
f3
25
10
f8
d1
e5
ed
0d
ed
07
dd
e6
03
fb
01
02
f8
f8
f5
ec
da
c5
00
13
ef
26
17
e6
f2
f9
f8
10
f5
f9
0f
e8
03
fb
09
23
f1
04
dd
f2
07
fc
03
0a
f9
0e
11
05
00
fa
fa
fe
d6
01
ff
d8
f2
0d
f8
fd
00
12
e5
f0
09
20
